/**
  ******************************************************************************
  * @file    network_data_params.c
  * @author  AST Embedded Analytics Research Platform
  * @date    2024-10-28T16:31:11+0000
  * @brief   AI Tool Automatic Code Generator for Embedded NN computing
  ******************************************************************************
  * Copyright (c) 2024 STMicroelectronics.
  * All rights reserved.
  *
  * This software is licensed under terms that can be found in the LICENSE file
  * in the root directory of this software component.
  * If no LICENSE file comes with this software, it is provided AS-IS.
  ******************************************************************************
  */

#include "network_data_params.h"


/**  Activations Section  ****************************************************/
ai_handle g_network_activations_table[1 + 2] = {
  AI_HANDLE_PTR(AI_MAGIC_MARKER),
  AI_HANDLE_PTR(NULL),
  AI_HANDLE_PTR(AI_MAGIC_MARKER),
};




/**  Weights Section  ********************************************************/
AI_ALIGNED(32)
const ai_u64 s_network_weights_array_u64[13749] = {
  0x22313b1f1f3ad2feU, 0xf73f23fdd337f63dU, 0xe0dcd3e7022600ebU, 0x1bf531e6fb0cfde1U,
  0x1a061138fd31e0fcU, 0xd530e6e839f61ad9U, 0x1ce909e7093c07e1U, 0x239e52bee0fe32aU,
  0x36e6112019ddf1f3U, 0xfc3538013f293017U, 0xf90e001cf5f5d90aU, 0x19ffe534171b0c12U,
  0xe0de0119182f0a0aU, 0x3f1ffc0d10251904U, 0xf200eec3c04dee3U, 0x2937e10dec0fdc3aU,
  0xecded0c82e06e9e0U, 0x4d530f5233ce4f8U, 0x1c2b1f2a3c070b05U, 0x3c00eb1fdc14ed25U,
  0xfce4ecfc3501e4f6U, 0xf8ebeee3001c171bU, 0x201acdc32a1ad3d6U, 0xed0bf4ead7f9e5fcU,
  0x3c070c40e5f43034U, 0x6cdf6e430df233dU, 0x3ad323033d15e707U, 0xeae93a182d1c13e1U,
  0xff0bd3e11b33ee3aU, 0x2c0edbecd4fadef2U, 0x1ecce4d9ffd7ec39U, 0xfe4e9ea0f36d7ffU,
  0x2b24192f153b2cf5U, 0xd36250623fe08f8U, 0x29fd20201fd5e105U, 0xe507e9043d143f02U,
  0x16e7c0e6c7eb1226U, 0xf5220208d8dc05e4U, 0xda0221fef6f4ead6U, 0xd5d8edeef22bf5e5U,
  0x23032ee002721e9U, 0x162d151b032520efU, 0xf8d73819f213fa3bU, 0xebe9f9d2c3dde514U,
  0xc51bcfddddf1fc28U, 0xf801f2fb32302ed3U, 0xe936d3f9e033fe18U, 0x15f01fcc0fc20e03U,
  0xf6d73c153df32a03U, 0xf9e715312410261aU, 0xc110d7db1719f61bU, 0x322e2c10e80917e4U,
  0xfa2d0bf0fb0c0f05U, 0xff04cf33d9220bf0U, 0x3d8fafce40e101eU, 0x25330b2fdc1f21faU,
  0xca13fa2c17ecf420U, 0x1007c7c6eec329e6U, 0xe604ec1cfbee152bU, 0x132f28d322de2619U,
  0xe5f11b0627cf241aU, 0x15d72cff08e0c322U, 0xf5f5d8fa1af21539U, 0xe5030cdcf0fd3a25U,
  0x71e020ce4372c1bU, 0x240908f632dd091fU, 0x39e4d903f0e3eb23U, 0xf6f6270523fcf2d9U,
  0x2438f81c03da080fU, 0x3f2b3dd7e208e9ecU, 0x183e0decd51d3834U, 0x1702f6d6ea04f922U,
  0x2f38f9fe3d0ce5U, 0x2c1b0e06081b3a12U, 0x1d2c2de9faf607f1U, 0xb3ee404d81d151aU,
  0x21ec0fde16053538U, 0xf00120e405113d16U, 0x1a07cd091526f31fU, 0x1818fcdfdd3839daU,
  0xf42c2f2efe1e0dfeU, 0xded726e2273ee8f0U, 0x1dd905eb180cfa11U, 0x23eed514222e35e5U,
  0xeb24f2331107ebfcU, 0xf7151116ebe20806U, 0x30df2d00e310d433U, 0xa3d3cec31212412U,
  0xf42c3139e8f8d910U, 0x33320180ef10d25U, 0x3dd626382e1332f0U, 0x3c310ae619ee1724U,
  0x8d3102b2115f131U, 0xddf112e40e230323U, 0xd8f33e2d17020c21U, 0x25e4fe08f8f32d25U,
  0xf0dc1a1b17243d05U, 0x292119e8d4fed4e0U, 0x2fcff000102fd03U, 0xff040504fdfdfcfcU,
  0x6fffdfffc040201U, 0xfffe060601fcfe01U, 0xfbfcfe0303000400U, 0x7fdfefc02fdfd00U,
  0x2fb06fc05fcfe00U, 0x605fcfdfcfdfd03U, 0x706fffa0303fd00U, 0xfbfd0303fcfe0303U,
  0x203fb05040005feU, 0xfbfbfbfc00fc0603U, 0xfe0409080b0dfcfaU, 0xfe00fc04fb01ff06U,
  0x301ff06000601fdU, 0xd0802fdfffe0507U, 0x8fffefa0a03010cU, 0x4ff04fefefdff00U,
  0x40c090502070606U, 0x4fbf2f7f6041307U, 0xff04ff070a0f0701U, 0x4040e02fc02fb01U,
  0xe9fd02040501ff01U, 0xd0f080b0a01e9efU, 0xfe00fc00fe070910U, 0x20406f3fd080908U,
  0xc0202f9e6f7eaf0U, 0x30206080d0f0910U, 0xf80000f9fd0700ffU, 0x80d0e04fbfef8fcU,
  0xf0f0607f80bf7f2U, 0x3fcfc0602040808U, 0x4f2f8fdfdf60006U, 0xf701e3dff7131802U,
  0x207071007000205U, 0xfef5f8ff0301fc02U, 0xd7f7230e090600feU, 0x5fe00f9eaeeddc7U,
  0x506fe050302050bU, 0x15130705faf8f801U, 0xecf5f1d4cee20613U, 0xfe0006fcf6f8f2efU,
  0x1102fd0301fd0301U, 0xd2e1ed080f211a13U, 0xf4f4f0f6ecf9ecdcU, 0x101fdfb03fcfefcU,
  0xf508181314160afeU, 0xf3f6ece7e6ede4ebU, 0xfe05fffdfbf5f1ebU, 0x13161201fd00ff02U,
  0xfff3e1ccd0ef0b14U, 0xafbf8f3f1f1ecf1U, 0x403020401fe0103U, 0xcdea050201080606U,
  0xeeeee5f905f0ecddU, 0x6fd0202fc05faU, 0xf0f40501080602fdU, 0x505e8d2cfdbf1e9U,
  0xfeff06f3f2e9e7f6U, 0xfe0703010305fefcU, 0xc6d1d8dae9f6feffU, 0xf6edeaf8ff04d6c3U,
  0x7ff01fb090707f6U, 0xe8f0fffc07fc0202U, 0x6fcdac0d0d6dae0U, 0xfd0c10fdf9fbf4f5U,
  0x601070004fffb01U, 0xd8e2e4f9fcfe0204U, 0xff0c060f0a07ead3U, 0xfd0404fe080a13U,
  0xf00ff010106ff00U, 0xf05f2ecf7f6080eU, 0x80b04091317160dU, 0xff03fd03070403fbU,
  0xa0a1013140d050eU, 0x11150a0f1a0ef904U, 0x706050301060a11U, 0xfe0a080404040704U,
  0xffdfafa0c0a0b02U, 0xfa050613161a0a05U, 0x805000501fe0205U, 0x70c0b03ff080e0bU,
  0xb1013ff01f8f403U, 0x204fd0402010406U, 0x4010301fdfd0601U, 0x3030806ff060c02U,
  0xfcfb03fbfd070f00U, 0xfc07fd01fffdfcffU, 0x3fc0b0c05fd00fdU, 0x806ff0108020d08U,
  0xfffbfc070106fd05U, 0xfcfa0301fd000600U, 0x1f3f901f7f9f805U, 0x5fc04fe06fcfbffU,
  0x2fe020405000301U, 0xfb0001fd06ff0002U, 0x1060002fb01fcfdU, 0xfefeff06fd0402U,
  0xf5fbf4f4fcf5fbU, 0xf8f80003ff04f7ffU, 0xfdfaf6f702fafc02U, 0xf5030201fef8f8fbU,
  0x3f802f7fcfefbf9U, 0xf7f5f6fc03fffa01U, 0xf8fa010103f703U, 0x3f700f5faf9f603U,
  0xfdfdf7fafbf80102U, 0xfa0105fefff7f702U, 0xf7fafdfdf6f7fcfcU, 0x4f6fcf9f6fb01f5U,
  0x808fafb02fd07f5U, 0x2fe0104fffff9fbU, 0xfdfdfefd0101f702U, 0x903eef40502fcf4U,
  0x4f8f8fdfcf6f6fbU, 0xf801fefafbffff04U, 0x1407fbfcf7f2f6f6U, 0xf502fffe02130911U,
  0xfd01f6fdf2f5f4U, 0xf2eefafefe03ffffU, 0x61c151211150307U, 0xfcf2f7f0eae6ebf1U,
  0xf604fbfef4ff0704U, 0x1c180604fcf6f0f7U, 0xe8f7fa0b080e100fU, 0x4fb060203f7f1eaU,
  0xf0ece7ebf1000404U, 0xc05fa0a0f0d10fbU, 0xfdf7ff010b0e0b1dU, 0xecf9fcf7f5f90212U,
  0xe1e1a0afcf0e4f4U, 0x131f222301e7f4feU, 0x1f50b1506f2060eU, 0x209ebf1f9f9fd03U,
  0xfae3ddf1fb0e1411U, 0x17060c090e231e1fU, 0xf8f6f6f5fc040318U, 0xf502181e0f1103efU,
  0x151b1c07f8e3f2fbU, 0xfd050b1112130412U, 0x1c2501fafbf70301U, 0xeef1fafff603120dU,
  0x1e1a11101b0601ebU, 0xfafbf8fbf6fef712U, 0xf60c1b1c2323100bU, 0x10f8d8d4e5eff6feU,
  0xf7fbfb0d1c170704U, 0x28211900fbfefff5U, 0x1f607f6070d1a22U, 0x14070c0aec00f3e5U,
  0x3fffbfcf600ff05U, 0xd11282224231201U, 0xfafdf3dde9030b0eU, 0xf7f7f30006f8000cU,
  0x101408ff01f8f6faU, 0xd4f516282b1f120fU, 0x8fbf6fcf7fbdfd9U, 0x2fff902fef7fd02U,
  0x181208040f051203U, 0x100df7e4c1dd030eU, 0x3f6f0edfdfe0004U, 0x6101000f7f4fdffU,
  0xccc0e4fd140c0704U, 0x405ffff151707f7U, 0xf70100f9f9faedf2U, 0xafaff00fa080505U,
  0x1d1f1700d5c6e30bU, 0xf7f3edf502090912U, 0xf4f4fff9f4f7fafcU, 0x4e6f1eef8f70104U,
  0xfe02010614182623U, 0xfcf6faf9faf8fef3U, 0xeeeef4f1fbf4f7f7U, 0xfa111b2c3214f6e6U,
  0xfc02f8ff0701f7f9U, 0xf1f7edfbf5f8f8feU, 0x34291c03fae9eeedU, 0x809fef0fa051f29U,
  0xfff602f8ffff00f6U, 0x6fdeef8edeefbf6U, 0xfa0c0f2020322417U, 0xf9fe010207fffbfaU,
  0xeef7f8fa01f600f6U, 0x1b1f2d29200c00faU, 0x203060911140f1aU, 0xf5fc0201fc01ffffU,
  0xfcfaf8eefcf6f2f4U, 0x100d0b0c05ff03ffU, 0xf5f8fcf607fc060dU, 0xfc0304f8fbfdfdfeU,
  0xfd01fb04ff01fc00U, 0xfbfffe05fd0406feU, 0x1fcfb01fe00feU, 0xfaff03f5f8f4f6feU,
  0xfa02f700f3f4f6U, 0xfa030000f5f702U, 0xfe020a0008010804U, 0x10906080400fd08U,
  0xc0bfffe03040b09U, 0x20bff0701fdffffU, 0xa010007050cffU, 0x5040602ff050904U,
  0xfd08060803000501U, 0x704050109010407U, 0xfd0101040a0b03U, 0xfc05fcfc06fefeU,
  0x407ff0c05010703U, 0xfe03fc01070b05ffU, 0xfcfdfe01fdeff8faU, 0x306ff060a060104U,
  0xff03ff0301fe0108U, 0xe5edeff801f3f902U, 0x708000004f8edefU, 0x30afe0b02060901U,
  0xfff8f9ff04060705U, 0xe7e1e2d8e3e7e701U, 0x6fcfd02fdf1U, 0xfaf9020b00fd0709U,
  0xe1ecfc0000fdf6feU, 0xf9fb03ebf1fafef2U, 0xd090a05fffc03fcU, 0xf6fc02edf703f703U,
  0x80b01fbe3eafcfaU, 0x908fd0102f9fa05U, 0x2ff060b0300080aU, 0x1101ebe4ebeffa0aU,
  0x102f0ef04120df8U, 0x3020c080a0902f5U, 0xf0f3e9f9020a0a09U, 0x70808152d230efcU,
  0x60902f7f300fef7U, 0x4070b0f03000208U, 0x3227200b09ff02f6U, 0xfffd020c06081eU,
  0x906feff040bfefcU, 0x1f270a0b070b0d13U, 0x60e10103227100eU, 0x4fdf902f60b120cU,
  0xb050d14070c0c09U, 0x3e22f7e8020d131cU, 0xfeff0a0501151f1fU, 0x60b0a09050a02f9U,
  0x4100d0f0e02010dU, 0x2131926403400eaU, 0x20b0c01f8060915U, 0xf6eb040e0508040aU,
  0x2a2d13fff8f6fe05U, 0x30308080d110c1fU, 0xb0507fdff090300U, 0x1fdf9fee8eff40aU,
  0xf105181a32240bfbU, 0x10800f905110cfaU, 0xf2e8f7000c090504U, 0x262315f7fe0fff01U,
  0xf7f3fff9eedcf41dU, 0x50c010afe02f7U, 0xf0f1f8f2efe4eef4U, 0xe3d2d4e9011c0ffcU,
  0x80203faf5fcf2f3U, 0xdcd5e8fdf909fe05U, 0xdafb04e2e8d9dcdfU, 0xf3eaecefdfc6d2c9U,
  0x4020906ff0802fcU, 0xf2e7dfdce5dddff6U, 0xe4cacacfdbecfcf1U, 0xfd04fcf8ecede7edU,
  0xe7e6e1fd04090afeU, 0xd6e2fc0000fcf1eeU, 0xebeff4e3e1d6dedbU, 0x70305060002fbffU,
  0x51a0bfdfaf3f7ffU, 0xe4e1e1e3f2e2ef0aU, 0x80b06f7ede6f0ebU, 0x50a0503050bfe06U,
  0xf1fae9f4fe120e15U, 0xf6f8e9f0e4edf1f2U, 0x7070200080afdf8U, 0xf403f80713150e09U,
  0xe8edf9ff01fb0909U, 0xc0aff08fffdf5eaU, 0x1213110c05ff0a0bU, 0xf6e9f1effb000510U,
  0xfefaf4faf5f5f7U, 0xfefe030b08fe0400U, 0x6090d120b0d0a09U, 0x40b00fcff08fa00U,
  0x50a0a0307f8f8fdU, 0xa0bfffe070a0902U, 0xa10070e0a0e1709U, 0xb0bfe0d040e0a0aU,
  0xfe0b0a0707fe050aU, 0xb0b0a00070a0909U, 0x10e09080a080306U, 0x800010909020308U,
  0xcffe1f0fae31bfdU, 0x1ae0193a22031edaU, 0xe408292336ff2c3dU, 0x111e933ff10e205U,
  0xda40d3e13a0d0af8U, 0x1710ee2827003805U, 0xa1f0e3831ef193dU, 0xf02fdc1f042de0efU,
  0x37dcfdd837e0d222U, 0xf82d3c1219cffc03U, 0x26ff25f03ff01514U, 0xde3a1ff9f42211d4U,
  0xf81a24dc09fbf028U, 0xebd5ee2e01d9e7U, 0x2319f22d1b391a39U, 0x221817e32d353609U,
  0x33e710151116e3eaU, 0x3be81dde36e334f9U, 0x1d1ed725e21ad7dfU, 0xeec02082500e9ecU,
  0xdc09de210839fa06U, 0xd31e1437011a0830U, 0xf0ecd53a152636d2U, 0x1407231bd427d51bU,
  0xef2926082914d400U, 0x1a0416d6070e1330U, 0xe50a220d2614db25U, 0xd9401de21ce9e7d7U,
  0xd306401df0ed271cU, 0x24c4c8f1f1f015f5U, 0x33112221f4de261fU, 0xef1eea371cd825e4U,
  0xd9f6012526ec02d6U, 0xeaf4e1f30909f40bU, 0x12fbf9ddfce527dfU, 0x1940e318ea2d271bU,
  0x2fb1f270be4073bU, 0xf7fe30f316f9ddefU, 0xee0a2c0028f0da20U, 0xea180ce20c3f2704U,
  0x1a31f9da3e001222U, 0xef0eebf307e8dd1aU, 0x6042603f524fe05U, 0x3833f000d4fcd3f7U,
  0xfc2de234e009f81fU, 0x2fe529d4d3203719U, 0xe3ded93332032cf3U, 0x2e51de9dedf2837U,
  0x1f000a260b30ff3eU, 0xf7daf1ee38e226eeU, 0x60bf623d414e0d5U, 0xec32ea3cf0c5e51bU,
  0xf73027d8161aefU, 0xafcef3bf5ef2b03U, 0xca0127d7212bec22U, 0x33d41febf2083ec4U,
  0xf228222123dd02fdU, 0xc4e702dad728cafdU, 0xeb29260bdbee0729U, 0xec26f8363d251e22U,
  0xd21a032a20250438U, 0xcff0a30d62ce6fcU, 0xd4dd30f0eed8f6d9U, 0xa14eedde21ffd38U,
  0xe2283c1e1d0ee0efU, 0xfcfef2f222deef40U, 0x16d4d639f1070039U, 0xf327e9ffdb2b00f3U,
  0xfdfb0c2824d5d514U, 0xec271f0d4037250dU, 0x8e40cf0e7fa0c19U, 0x150222eacae0f714U,
  0xf10205de1e31de0fU, 0xe3e5271c26f4fe3dU, 0xd4e3e81be029fad2U, 0x340d1933081bd813U,
  0x2c29341cf9e9da3cU, 0xf01626f3d4d636d2U, 0xd4dfeb36013cd339U, 0x24e21408fbf82f1cU,
  0x210a300b27f70310U, 0x6df06fed7e2323cU, 0x303a2722d73a21d4U, 0x6e63bdce51b222eU,
  0xfb1d2011271b1515U, 0x2ee9e10ad5f121ecU, 0xff111b063cd8da3eU, 0x22237e903322bd5U,
  0x173c3c09f7391019U, 0xf132eef8fe0d302fU, 0x33352c080324e626U, 0x1a33ece3fcddef20U,
  0xf2142d2c1c041be9U, 0x2536d6d7fe1f182eU, 0xafc0b11e43d3724U, 0xd6e20f1bf5e439e7U,
  0xdcf4f0301326d921U, 0x63a080b09f9d802U, 0x8080502f506fef4U, 0xfef3fbf305f6f7fdU,
  0xf5fb07f70403f6ffU, 0xf4fff7ffffff08ffU, 0xfdfd00fe08fe0809U, 0xf6070100f2fcf406U,
  0x6fd00f6f605fb01U, 0xf6fef6fb08f702fbU, 0xf2fdfffef8f0f7fcU, 0x6f2fefdfdf700fbU,
  0x60102f6f80204U, 0xf2f0e6e9010101fbU, 0xf9edfcf3f0e2d9e7U, 0xf50402f5000401f7U,
  0xfef603ff08fc0901U, 0xf9fdf5e9e2eeedf0U, 0x806f8eff7f0fcf8U, 0x2f5f6fd04fef4f9U,
  0x8e5f9f2faf3efffU, 0xf8f903fd12080916U, 0xf7f9f601eef1fef4U, 0xfcea00f002f508f5U,
  0x14101508f8040106U, 0xcfcfdf5f603171aU, 0xf207f5f901fd04f8U, 0xf4ff0404edf1ee00U,
  0x10c0f0f1e032312U, 0xf9040a0c10080603U, 0xf608efef000609f6U, 0x40a16110f100801U,
  0xff040f060a0df106U, 0xf0fdf808f306fa02U, 0x211c12f3041508f0U, 0x1805f6f6f6f8150fU,
  0xfdfc05fc1406161dU, 0x121cff02fb060100U, 0x208ed1c0d28280aU, 0x1401131a0806f5U,
  0xeffcfa010afafafbU, 0xe202333192717feU, 0x1e0a1a0e20120e22U, 0xf4fffd0dfe090617U,
  0x261c2905f8f7f8f8U, 0x15fd140701101f1aU, 0xf0e161c231e271cU, 0xff0706fefd070501U,
  0x12fe1f0c1c101912U, 0x172f31192818211cU, 0xf5fcf4dfea160018U, 0x1102180d09f7fdfcU,
  0x301283326ff0114U, 0xdffbf7fd132e3b1eU, 0xf704f4f7fdeee7U, 0x20f709110e02090cU,
  0xf712271005031028U, 0xfd08f2d6dce9d9eeU, 0xdf2e9faf303fff3U, 0xece80d2217172032U,
  0xe3e4dfdddef41d11U, 0xf0f802f30000fbe3U, 0x3c292a2410fee9f5U, 0xe0db0c0dfa031b31U,
  0xf2fdf3eddde6e8eaU, 0xf80ceee3f6f7f7fdU, 0xe3f1012b3017110eU, 0xd8e9e2ede4d3e0e8U,
  0xe9f406fa07f8f8e9U, 0xd5e3f3eaeef8f6e0U, 0xebd9d3e0d0cad8e3U, 0xfd05fde9dfe4e1ecU,
  0xe1e6f5eaeafa0704U, 0xd3c5d1ccc0d5c7d6U, 0xeaf9f8f6efdad9deU, 0xf2f5f903fd04f9f3U,
  0xdfd8f0e6ecf9eae1U, 0xf2e5e2d8d5d0dcd7U, 0x802f6f5effff1f6U, 0xffece2e60105f605U,
  0xe3fef9f6f2e8e2f5U, 0xf7ff0000f3e8f5efU, 0x3fe09fffffd05faU, 0xf8f7f20c01f3e4faU,
  0xfc070f0e0f071601U, 0x3faf6f5f7050c11U, 0xfafcfef6f80209fbU, 0xf01080e1612fcfbU,
  0x90412151409ef10U, 0xf4fc02f50602f9faU, 0xd0af5fcf9f60afeU, 0x41001130a0b05f0U,
  0xf3f9fff5f804fe09U, 0xf9fffefa08fa09fdU, 0x7150f100504110cU, 0xf50301fbfff9ff0eU,
  0xf8f408f802f6f7fbU, 0xf908fd05ff000804U, 0xf4f4f1fefc0401f6U, 0x8fd07fefdf6fc04U,
  0xff0b04020a00fdffU, 0x906040b070b05fbU, 0xfd0b0307fefc0204U, 0x80cfd080afffb0aU,
  0xc07fa05040b0408U, 0xfa04fefa00fbfc00U, 0xfd070b0403090500U, 0x4fa01fa02fc0806U,
  0xfd0206f8050a0500U, 0xa09fe04fbfe0809U, 0xfa090708070706ffU, 0x60a080405ff0908U,
  0xf6effd00f306f605U, 0xc0207040b0208ffU, 0xa0705fe0207ff08U, 0xf404051108181702U,
  0x206000100f9f0U, 0x302fe0a030b090aU, 0xfa02100205fefa03U, 0xf2faf6fafdf4fcf9U,
  0x5fffdfb08fefef8U, 0xf7fa05fcfb060402U, 0xf8e6e0d9e4eaf2f0U, 0xfb00f6e9eb000607U,
  0x60c0602fffd06feU, 0xf3d8ddefeaeef408U, 0x60a0cf8040bfae1U, 0xaff0103f7f6f3fbU,
  0xd8e4f3f3f9050909U, 0xf8fd03eceff3d6e0U, 0xf3f0f6fe05ebefe3U, 0x509fa07fffd03f8U,
  0xf8f4e2d5eaebf8eeU, 0x4fde4e1ebed010aU, 0x4fcfbf1dce1f1f4U, 0xeff2e8f005f906ffU,
  0xd6d5e1130df2e9eeU, 0xd2e4ece8fdecf1ddU, 0xf9fbff040403f6e8U, 0xfa0bfff9f4fffef6U,
  0x6f3f5f6dac7dcffU, 0x403f3e2e2ececebU, 0xf8fbf1f0fdfe0209U, 0xf1e3e70400091206U,
  0xe2f2edf912fdf904U, 0x6000305010003eeU, 0xf814192116f7f20aU, 0x121820180cfb08f7U,
  0x30805f5fb010c0bU, 0x2211ff130707ff0aU, 0x2527220d0c032126U, 0xf2fe07070b1d1b2cU,
  0xb08fafc080a0204U, 0x1c0320291b17171aU, 0x11081f362e2b322dU, 0x4010f0ef9fcfdfcU,
  0x27221c0c06040afaU, 0x3d2a201b2d121624U, 0x90809070f103240U, 0x40508fe091b07U,
  0x191b13312024170bU, 0xf80916252a0d0e1fU, 0x302150a0d0b0bffU, 0x181418180e01fe09U,
  0x1a10090ff7fe0c20U, 0xe0008fafff10916U, 0xfefb0207020d1210U, 0xeef2f1fa11010f0fU,
  0x1fdfb18170df3e7U, 0xb0e020f16100d00U, 0xec04010c0c01fdU, 0xeef6e2d3dad5e2fcU,
  0x90e1007fdfbe804U, 0x8fe060afcfc0017U, 0xddedf1f7dbe3fa0bU, 0x9f9e6e3d6e6e3e3U,
  0xfb050a0106101a06U, 0xdbecf2060d0cfd02U, 0xd3d6e3eef6fff2dfU, 0x915140ffdf9d9d4U,
  0xf903fd020405fafcU, 0xecf2e1e4e2e7f9f5U, 0x4f3eacfdadce8ebU, 0xfefafcfefc080f11U,
  0xefefff02f9030107U, 0xe4e1eee7f5eaeff8U, 0xfc070302fffaf4ddU, 0x30501fe01fa03feU,
  0xf8fcfd0203fb0006U, 0xf0fcebedf6f7fbedU, 0xfdfd0402f8090902U, 0x70a070401060809U,
  0xff00ffff03fff9fdU, 0xfb05fefdfb00fa04U, 0xb0bfc02fb09fd01U, 0xfffc0403ff0a0901U,
  0xfe00000afffb0400U, 0xcfc0306fefc0b06U, 0xfe060206feffff01U, 0x606030506070603U,
  0x2fe02fe070206feU, 0x3060504fe04feU, 0xff0203ffff030003U, 0x104fe0601050701U,
  0x1fffd0404000404U, 0x401070301030402U, 0xff02010500020501U, 0x206020503060601U,
  0x101020502060304U, 0x3080807030306feU, 0x502fafafcfcfcfdU, 0x604040002ff0100U,
  0x3fffe040207fe07U, 0xf0f9fafbf8ff0409U, 0x3fdf9fd0102fff9U, 0x205040403feff02U,
  0xfbfd030505030704U, 0xf5f0f2efeef7ffffU, 0xfd03fe03fbfbfcf4U, 0x100605ff06fd0105U,
  0x2070d0d010c080aU, 0xfcfcfafdf9fb0702U, 0x30503fd0206fcfcU, 0x5020918100d0604U,
  0xff03fd070000150aU, 0x7fcfcf9faf9fcfbU, 0x1c161107090602fdU, 0x7110bff03100819U,
  0xfaf5fa0001fefc07U, 0x10202060601fcfdU, 0x1081016170f1707U, 0xfe0003fd0a13130eU,
  0x206fcfdfef8f2feU, 0x1214100f00070206U, 0xfe0a11080c181416U, 0xfff9f5f502faff02U,
  0x80608030503fe02U, 0xb11101015120e0bU, 0xf8fbfff9e7e0e4f0U, 0xff000406ff00faf9U,
  0xc07020705080402U, 0xf0d3c0d6e3f2f604U, 0x501faf3ebfc0002U, 0xfd05fe040002fe03U,
  0xe4f2eff4f9fafdfbU, 0xf1f703fdeae5d1caU, 0x40402000605fceeU, 0xecf3f8f8010207ffU,
  0xfbebdcd1e4f5e5edU, 0x20101ff08050805U, 0xfa000505fdff0802U, 0xd9dddddbe3edf5f7U,
  0x60d0b031906e9cfU, 0x60405ff000007U, 0xe0eaf3fc04060400U, 0x1b1cfbd9d1cfd4d6U,
  0x3fff8fc07051115U, 0x200fe0305070509U, 0xe4d7dfdce9e8f4f5U, 0x10c0d1a252c15f9U,
  0x4ff090200f4f4ffU, 0xebeff5fffe030400U, 0x20282f14fff0ececU, 0x6fceffbfd0e0b0dU,
  0x202060102050709U, 0x1600eff0eff1f6f9U, 0xf9040f0d1d202d2eU, 0x202060202f8f0f4U,
  0xf1f2fcfa0202fe00U, 0x22171c2c0b02f0eaU, 0xfef8f5f9f3f2ff14U, 0x305feff01fe0308U,
  0x504f9f1f1f0f400U, 0xfeff080f171d0f11U, 0x401000506fffcfbU, 0xf5fe01ff03050207U,
  0x130d03fbfbfc01ffU, 0x106070302fc0005U, 0xfbfefd0502010601U, 0xfbf30300fe0301feU,
  0xd09000d180801ffU, 0x3fd050703090bU, 0xfb04020502000403U, 0x120902fdfcedf900U,
  0x205040d0e0b0406U, 0x1ff040706040002U, 0x3fa060204fe0004U, 0xff040a08110bfc04U,
  0x4000504060605fdU, 0x103020305fe01ffU, 0x2040a03ff000209U, 0x606000506090708U,
  0x2fd0200fe0207feU, 0x106fe0700060702U, 0x3010602fe030303U, 0x503050501010002U,
  0x2a0a25201338f2d9U, 0xff27e73b340239daU, 0x343b2a35022ffcf6U, 0x41dfdee3802e13eU,
  0x38131206032ce9dbU, 0x5ede5153713eef6U, 0xede0eae60c30f23bU, 0x3515fb2432ec301aU,
  0x431230ae4dbda3fU, 0x1e1f1dfeeff02df1U, 0xf912fd08db1deeeeU, 0xf5fdfdf732053f01U,
  0xe42e1c343bd9f5dcU, 0xf9113fe0fd032027U, 0x1adcf3fa1fe22f0cU, 0xdc17d2d72b360de1U,
  0x18f6fdd9f22e2e31U, 0xeb13303be1f01eddU, 0xdede0ee43d0925ffU, 0xdad3d72707e4172bU,
  0xb1031ee2f10dbd0U, 0x1ff40f2525ec2e20U, 0xd7c8efd2222fe921U, 0x1fde1c2012f3c6e9U,
  0xf73ce23be1f1f924U, 0xe62af3051cf7fde3U, 0xf71704d1cdcf071aU, 0x19ee3c0de82d071aU,
  0x21f33ce3e122dd10U, 0xfc0113f6f7fddb03U, 0x14fc2310c7ffe5f8U, 0x3f3a34f2312f263bU,
  0x16e41df8dc1be13bU, 0x1f17fee6282b12dfU, 0x393435150ed624d4U, 0xd701f3eaec052511U,
  0x17d8e412eb131512U, 0xf8f6d52a1efff1U, 0x40e31d312ffe21f2U, 0x3819031921df2033U,
  0xe7dce32c07d7113eU, 0xdfe3dffb1bed2810U, 0xc61ee00400db1d11U, 0x3203eb3031f904fcU,
  0x32d700f6d809dfe4U, 0x192f35f52a292303U, 0x6e7fc0cd409d728U, 0x390f3a321f1a0401U,
  0x16de0010f0e4d919U, 0xc7f2d83503f439dbU, 0x16ded00e10f4350eU, 0x132623e4f530f41eU,
  0x92322132f2fe2e6U, 0x23fa071afff913U, 0xe1ee04f4f1fefdfdU, 0xf1da111e26fd2312U,
  0x1c2e11db3ff23308U, 0x27331d030fcff1cdU, 0x22d8fe0edde3fef5U, 0xff190be11a300d2cU,
  0x232a31db02f81d2dU, 0x200bf40402edf320U, 0x130e1f2c2bdd31eeU, 0xdd16f6dc01f42724U,
  0x9ffdd18e61ff40aU, 0x8e011de171fc81dU, 0xfb02f8f5e017e60cU, 0xf61bccf7060a05feU,
  0x50bf0e0d3f82cfcU, 0x13160639f232ecU, 0x10e1f728e01e0e37U, 0xfc3b392a141402eaU,
  0xfad8f812eed42028U, 0xe4091417ea23260dU, 0xfaf3d8e5cffdfce0U, 0xdde60cee1ffd3326U,
  0xf53b02f0f2121221U, 0x22dce4ebe8fee0dcU, 0xf20df9db12d10ce9U, 0xf5271ad41d0fcc21U,
  0x330f29062a0221efU, 0x18f7301635e51ae4U, 0x2ce919200112f3e8U, 0x521212018f0263fU,
  0xece409e0300c38e3U, 0xf636def0e90af509U, 0x19fc403230f6f709U, 0x1c04f8ea32232a35U,
  0xfd26f01b0ae2ecf2U, 0x40b0e1e013138e3U, 0x3adedd110fe13a3dU, 0x4eee22031011336U,
  0xe6f0f5e7e23d0c34U, 0xde2a030f3e113be3U, 0x3dda292eecfbfcedU, 0x3ed2004ea0dfd1eU,
  0xf42e1ee92040352dU, 0xdc1fe8f814f1e602U, 0x105faff0105f906U, 0xfe01f906fb01fbfbU,
  0xf9fc05f9fc0701f8U, 0xfcf9fc04f8060500U, 0xfc06fd000008fdfaU, 0xfa08fc03fe03fffeU,
  0xfff7fd05f8ff0206U, 0xa00fffcfefcfbf9U, 0x8fc071405fc0005U, 0x6fffe01040710U,
  0xfe05f9fd03fb07fdU, 0xc0c100a0100fdfdU, 0x17221d241f1b1a1bU, 0x508060006fd111bU,
  0x10903f90806f9faU, 0x2f2a201a10171915U, 0xf8f2051118111f28U, 0xfbfc0104f807fcf7U,
  0xff0c0b0e08fe07U, 0x203161d130807feU, 0xfa0502f2e6e7f000U, 0x3030501fdfa00f8U,
  0xd1d1e8dadeecf608U, 0xdedae5e6ebe6dfdbU, 0x4fbfdf900f8faffU, 0xd0ddeaeef8000907U,
  0xdee3d0c7c1c0c9d1U, 0xf802faf4e7d3d9deU, 0xf4f70906020604ffU, 0xd9c6c6e0cbd1e1edU,
  0xf7eafc08f8e4dad9U, 0xfefd04fc0000fffeU, 0xebdae2f1f0040a0dU, 0xfae1f1ede1f8eee5U,
  0xfffbfe0a08071304U, 0xf6f4fc0a01fc00ffU, 0x6230ffffcf9f0f5U, 0x1c231411fdfa03ffU,
  0x5fd03fafaf9fe0cU, 0xc08fc070bf7fd11U, 0xd0d16050a371cf4U, 0x4070f1c292b220bU,
  0x6120305fd0401U, 0x122508f7f10f1901U, 0x2d201519080b1219U, 0x7f8080104fc0623U,
  0xe1fa00f1f50d1605U, 0x1101f10f1a10e6d5U, 0x303051e29171813U, 0xeb0b06f308040105U,
  0x905e2cee7f0fae3U, 0x1e1719171010f0eaU, 0xf5fcfdfa02fd0014U, 0xd0f2ebe5ee0d1a05U,
  0x140ae4f8fdfbefd6U, 0x3f5f80819251819U, 0xef0d1e0f02f9fcfeU, 0xf9fbfbe4e9f6f5ecU,
  0x70b0c160cfeebedU, 0x1f802ff01fdeff8U, 0xfceff0f510071d0eU, 0x4f00802eedfe2f8U,
  0x8fdf5f0ff01fa09U, 0x150e0e070efa04fcU, 0xde8ebfc1216010cU, 0x1fbfcecf7001815U,
  0x7faff0703fff5eeU, 0x25352123080b1b09U, 0xe2f4130b110e1d2aU, 0x7fef401faf7f3f3U,
  0xf0f11fb0104faf8U, 0x18232f352939261aU, 0xf6f5e8e8e8eb0a0cU, 0xfc0507010000f7f4U,
  0x311a100d0100f5f9U, 0xeffe0313262b3333U, 0x3fe06efe6f3efe8U, 0xebf3f8f705fef9fdU,
  0x211f331e030703efU, 0xeef3e4e5eced0505U, 0x701ff0200f8fff7U, 0xf2e2e8dce4e5fb01U,
  0xf1f2ebe8f5f7f6f1U, 0xfdfc03f5f2faeeeeU, 0xeefb030403feff02U, 0xf2f8fafdebedebf1U,
  0xfafbf3f1f7efeff2U, 0xff07f8060601fbU, 0xf7f5fef7f7fdfdf6U, 0xf901f604fc01ffffU,
  0xf807f8fdfcfefe00U, 0xf8f70306fef90306U, 0xfff20300fe01fb00U, 0xfefffb0400fe04f8U,
  0x604040603fcfffbU, 0xfef903fc0307f803U, 0xfdfe010300fbfff9U, 0x7fb02ff07f902fdU,
  0x5fbf807fa06U, 0xfaf900f90603fd03U, 0x5fdfeff0608fa00U, 0xfbfa05f9fefa01f8U,
  0xfe03fff7f70703ffU, 0xfdfffe0106fc01f7U, 0x10700fa04f7f906U, 0x405fa06fafbf9fcU,
  0xfdeef4f5f9fafaf5U, 0xfcf5f303f8fd0103U, 0xfafa07f9f9020206U, 0xfaf4f9f2000106f9U,
  0xf5f0eaf5ede2edf2U, 0x506fe050504fbf9U, 0xf40303fb07f906fdU, 0x3f4ededf0edf6f8U,
  0xf8f7ebf4ebfafcfcU, 0xfd06fdf90706fcf6U, 0x3f7f8faf9f7f6f9U, 0x2070a0905f6f5f9U,
  0xfbfdfa00fe02fd00U, 0xe9edf5fafe0603f9U, 0x90cf9fe07f705faU, 0x7050d0201041b0bU,
  0xfbfefef9fe07f8U, 0xfa0406f9eafbff02U, 0x716100d0a0603f2U, 0xf8040b0210141604U,
  0xfef9f502f9fff8faU, 0xc0904fbf6020b09U, 0x18100a1318140903U, 0x1faff01fa060b12U,
  0x20dfffaff06fbfaU, 0x2a211b01effa0cfeU, 0x60a09111e141121U, 0xfbfef6f4f500fa04U,
  0xefeffb0e13080bf8U, 0x16140e1c312b17fbU, 0x3f60405fd00f904U, 0xf1a1b140a0200fcU,
  0x332b1e00edeff305U, 0xfcfc0a05060f0a2aU, 0xc030307ff01f9fbU, 0xf3ea0c090e0a0d16U,
  0x3110c193a342effU, 0xfb0300fdfc0204f9U, 0x14080a140804fb08U, 0x253f310002f10d16U,
  0xfc0800fbf0f9ff17U, 0xcfb0906f8ff06ffU, 0x807101a0cf4f9fcU, 0xe4ece8f805244018U,
  0x4fa02f9020301f6U, 0x6ef02f901fe0502U, 0xe705302e1a110611U, 0x705f8f4f4efe4ddU,
  0xfefffe01f9f7fc07U, 0x150d182602f9fe06U, 0xfbe9edd8cee62b31U, 0xf4f903fc01fdf6feU,
  0x170504070509f5fcU, 0xc9d8fa1f11031227U, 0xfbf9f8fcfaf8f5e2U, 0x31001fefffa0502U,
  0xfefdff0908f30608U, 0xf6f9f4eae4daea04U, 0x300f8ff04fa0406U, 0xf3eff905020c0403U,
  0xf2f4f4fbfd03fbedU, 0x6fb020107fef6e7U, 0xafd07fdfd0600feU, 0xf6f903f3eeedfc06U,
  0x503faedf0eaf0f4U, 0x708fd0700f901fdU, 0xfff6010307050006U, 0xe1d4e3e0f3f2f8eeU,
  0xfe0201fcf5fbfdf4U, 0x1413f8fa02fa0705U, 0xd5e9e60001fe1020U, 0xf60303f1eae4cecaU,
  0xfbf9fe0703fbf801U, 0x1211121e0d02f6f6U, 0xfbf5e3e6f50601U, 0xfdfbfffdff0c08fcU,
  0xfc00fd050603f8fbU, 0xfef302021301fb0bU, 0xfd0402100d04f4fcU, 0x6fb02f8fafa02fbU,
  0x60601fd06fd0604U, 0x909fb02fefffff7U, 0xf9fcff0102fd08ffU, 0x20007ff01fd03U,
  0x403fc02fe0608ffU, 0xfc070107000502faU, 0xfa0003fe0204f902U, 0x30101fc0300fc03U,
  0x8f9060605020704U, 0xfdffff030302fcf8U, 0x40004fdfc040505U, 0x2fd040005fffe03U,
  0x50202ff0506fd04U, 0x4fffc02ff010300U, 0xfefdff0502fcfc02U, 0xfefc00fd05fe0503U,
  0xfe06ff0200ff05U, 0x1fcfcfdfdfd03U, 0x70603050503U, 0xfc030101080302ffU,
  0x4030100010506fdU, 0xfcfbfc0503fd0002U, 0x703070a0c080602U, 0xfd0002010005fcffU,
  0xfefc0101020502fcU, 0x1108f8f5fffdfcf8U, 0xa0e060407060814U, 0x3fc01fefcffff06U,
  0xf7fff8fefafafeffU, 0xb0d0804fe0d01f7U, 0x3040303161a0e04U, 0xfafdf9f9fdfefe06U,
  0xff06130a0005fdffU, 0x11181b0f130d0b00U, 0xfd0604020203070eU, 0x130a0d0b010104feU,
  0x201b161a01160b1bU, 0x1060806060d0b13U, 0xfdfd00fafbff0402U, 0xf7f90824190c0b08U,
  0xfcfbfcfd01f8f6ffU, 0xff05010605050507U, 0x1e070a0b07fbf8f9U, 0xd0d5ccc0c5c7f317U,
  0xfe04fd07f5e6e5e0U, 0x2f9f7ff01fd0602U, 0xcbc2e50f17070106U, 0xebdfdfd2c2c6c5d2U,
  0xfdfc0005fcfe00f9U, 0x803f4f5f401f9feU, 0xdce3eef9e9dfe500U, 0x602fbf6f6e2ddd3U,
  0xf708fdfcfffe02fdU, 0xedecea0a130cfaf2U, 0xf9f2e3e8ecf1f4f3U, 0x5fd00040003fdU,
  0x80cf7f4ff090607U, 0xf4f1f0edf6fbf003U, 0xfdfbff05f7f2ecU, 0x508fc0103fe0005U,
  0xfef4e5f5fc0bf80bU, 0x9fef5fb01ffeef7U, 0x40101010400040dU, 0x120407ff020004U,
  0xfe0d00f9eeece6f7U, 0xfdff030a07fd0103U, 0xfdf402ff04fd0502U, 0xeff3f8030f0bf9f8U,
  0x90a0b06070203f5U, 0xfd01fdff050610U, 0xfbf0eef5f1fdffU, 0xb0cfbe4eaeceaeeU,
  0xfd00ff04080c0a00U, 0xfaf8fe09030505ffU, 0xe2d9d7e3e0e4e8e8U, 0xa110c0c0706fbe8U,
  0x802fcfffe030107U, 0xf9ece7e8f4f60407U, 0x7fffceee3e1e0efU, 0x1ff0101070a0d11U,
  0xf8f6070801030305U, 0xfbf1f5f4fff3f4faU, 0xd0c100a0a070502U, 0xfe0203fc02fd0809U,
  0xf7faf701fbfc0408U, 0x5050207090c0201U, 0x4fe06040b0e0b0dU, 0xf8fd0408020206feU,
  0x10100d0a05f70103U, 0xc090a04070d0a09U, 0xfdfffe0001ff0404U, 0x90a0501fe080605U,
  0x800090f0a180d06U, 0xfffc00010200030aU, 0x7030100fffc0604U, 0xf09121206090508U,
  0x204020805080a04U, 0x4fe06fd03fdfe04U, 0x1020405050604fdU, 0x509070708030e04U,
  0xfd030108060909U, 0x4fc03060205fd00U, 0xff01fd04fdfb0405U, 0x2fdff0501fafb02U,
  0x2fd02ff0106ffU, 0xfe00050203040305U, 0x20101fefc000500U, 0xfdfe0100050403feU,
  0xf0e0205100a0300U, 0xb0c1001000a0d06U, 0xa100e010b07030cU, 0xa060e0c07091008U,
  0x805001004040402U, 0xb0c0c030203030eU, 0x80209ff0e020c04U, 0xa0a0804100d0803U,
  0x150a14120f130a0eU, 0xd0c06090706151cU, 0xb0a0d0309020305U, 0x16100b0202070b01U,
  0xf0a041810141609U, 0x9ff01040f0b0613U, 0xff090b100400010eU, 0x2f8000600080d0cU,
  0xb09fe0e09ff09f7U, 0x20d0fff030d0dfbU, 0xeffceefef9090cffU, 0xf80800fafdf0f100U,
  0x60706fb08feffU, 0xf7f6f7040d100e10U, 0xdcd5e2e5efe7dce5U, 0xfbf3ede8dde5d7e7U,
  0xfd0e0b07020c00fcU, 0xf6efd7dae4ebf4fcU, 0xdae3d6dbd7fde8edU, 0x506fdf9e6ece8eeU,
  0xebedf20009070f04U, 0xf104fde4f4ede9e1U, 0xd7ddd1e3d3cbe9d9U, 0x30410020b01f3e8U,
  0xf5f6eceeeef6f6fbU, 0xd4c0d0e2fc1801ebU, 0xa0003ede2e3ded9U, 0xfff4f4fd040f0bU,
  0x42706e1f8f9f9fbU, 0xf7efeee7cfcdcce8U, 0x404060d0001fcf9U, 0xe5f0e7fd05f702f6U,
  0xded5c5d4092712daU, 0x7fb02080a0409f6U, 0xf0f203f9fe04ff10U, 0x82f06f2eed8eaf5U,
  0x40208f9f4e1cbd7U, 0xa07030a0f0b0709U, 0xfeebe3fbf7f8f8fdU, 0xf5e3d4cef9231cfcU,
  0x81218191c08fd01U, 0xf5faf7f9060e0f07U, 0xe11d230f100cfff4U, 0x28120600f1f3d2d2U,
  0xa100d080f1628U, 0x250f0100fdfafc04U, 0xf4ede5c8cd1a4016U, 0xc0420231b0e0b01U,
  0x3fffd01100cff10U, 0xde2c3a1927170cf6U, 0x27160ff3f7ece3cfU, 0x8071002141226U,
  0x161b19080001f703U, 0xf8edd8c9d5151f26U, 0x100c14181b0b0afdU, 0xfa0106fd0dff050aU,
  0xdf142f1d150f130bU, 0xa120c0cf40af8e2U, 0x401030a0b011d16U, 0x180b1205f4fbf403U,
  0x2090cfae5fc2920U, 0xe02121505faf700U, 0xfdfafffd0e0c040bU, 0xea0f0c1601f2f6fcU,
  0x3f8f5f9fd01f5f3U, 0x8ff020905040c0dU, 0xefe4f1e5f7fd0110U, 0xf7f4e1dce4fbf3fcU,
  0xd010802f7edebf6U, 0xf2f9050a09050a00U, 0xede9e2e2dbdaf2f3U, 0xfbfaf5f8f1e8d4e4U,
  0xbffff09040e0303U, 0xe3dae3ebeafe0208U, 0xf7faf6f4f1ded7e5U, 0xa0705faf7fafd00U,
  0xfcfe05fe0e05050bU, 0xe3e0dfefe1f5f2f4U, 0x405fefcfefdf8e0U, 0x10d0f0f0b070203U,
  0xecfa01f8040bfe0bU, 0xf2f2fef4e9ebedf6U, 0x80406030f0c04fcU, 0x2020d010800ff0aU,
  0xfaf804fe000305fdU, 0xe03ff03080c0502U, 0x10ff0c080e040704U, 0xff0103050f060401U,
  0x70803ff0301010bU, 0xd000a080e050d0dU, 0xfefa0bfcfd000bU, 0xb02fe0104f902ffU,
  0x9030305f9fd09fdU, 0x601040206fc00fdU, 0x8060a070a0508fcU, 0xfb07fafb010306f9U,
  0x306fa04f9f908U, 0x3fefefa0af9fd0bU, 0xf9060101f702fc0aU, 0x5ff02faf7fefffeU,
  0xfcf90a0a03080509U, 0x6ff090703070406U, 0xf4f3e8f3f5f7f4f1U, 0x106fb090208fcf7U,
  0xf8fcfaf908ff03feU, 0xe8ff0705fe0b0305U, 0xfe0f0b05f4eb02fbU, 0x9fcfa0303fd0806U,
  0x7020a0003080bU, 0x70204fe0c0cf206U, 0xfc0b0110110d150dU, 0x503020aff01fafeU,
  0xf2fef2f9fbf9fdffU, 0x1d12180c11fff8f5U, 0xfdfe05ff0b03fc0fU, 0x5fc03f2f2f9ff08U,
  0xcecf6e4f1eafbf7U, 0x70000111e1e0afdU, 0xf704030909fc0a07U, 0xeaeefbfafd040bf4U,
  0xfefef5fafdf4f0ceU, 0xfa0cffff000009f4U, 0xf503faeef0fa0803U, 0x40efce8dbde02fbU,
  0xfdfcf4ece2f105fcU, 0xebeaf707f9f904feU, 0xd2c5e603fdfefaf2U, 0xe0ebfc061f2013ebU,
  0x6fc070905fff6e9U, 0xe2017fbf9f2f7f9U, 0x1913ff00ccc0da0dU, 0xfafdf1f8eaeeffffU,
  0xf4f3eceef80a06ffU, 0xd6c1e31713140d0eU, 0xf7f60d13251a1810U, 0xf9fe05ff0408fcf4U,
  0x1413160906faf3f5U, 0x272c321901dae0f3U, 0x302070304010a1eU, 0xd030a03fa0804faU,
  0xfffeefe0b05120dU, 0x8060b1726272729U, 0x1010205000cfe04U, 0x10001c1805fcfb03U,
  0x1c0e231b15130d09U, 0xfb0cfd04020bf8fbU, 0x1705f7fe06fd0801U, 0x24331a06fdf91522U,
  0x40b0d040b10232fU, 0x3fc000502010501U, 0x2f50d130ffff1f9U, 0xebff172526302012U,
  0xfefd0b0306060cf6U, 0xfef5fc00fdfc0300U, 0x111a2721f9f90803U, 0xafdfcf8e2f0e505U,
  0xf8fbfbfe00fc0405U, 0xfdfdf901faf4f703U, 0xe6dee4f408111803U, 0x20803fbff02fcf6U,
  0xfa00fef9fc0b0604U, 0xfe00ff08fe02fcfeU, 0xf6f808f5f7f4e1e1U, 0xafefe09fef6U,
  0x14120e0cfdf3f9feU, 0xefebf6e9f1f00b0cU, 0x60bf8fbfd01fa00U, 0xe0a0108f80908fbU,
  0xe4e5f6141c1e121dU, 0xf6010ef8fbf5e5e8U, 0x7040c050902f8faU, 0x1b170b0e0705fdfdU,
  0x1f1efe6f0fc0507U, 0x4080804f5fa020eU, 0xf901faf806ff07feU, 0xeef7fd010bfdfef0U,
  0xf709f8fb01eae0e9U, 0xfd080209fa0106f9U, 0xeefae9e7f2fc050cU, 0xeae7e6f0e9f6f9ebU,
  0xff0af9fafb02f5f8U, 0xfa0b0905f900fb06U, 0xeaf6fbf1eaf1fd01U, 0xff02f7f3f5f5f9eeU,
  0xfd0302fa080b01U, 0x4f8fe01000903fbU, 0x60a01fe08040109U, 0x30cff010aff0804U,
  0x3804193b2efb3f3bU, 0x3ee3373b053b1e06U, 0xfec0610dc340b33U, 0x3617e332e501e7faU,
  0xe8300616e107f912U, 0x1d09300416e4defdU, 0x23ec3b3a1009261aU, 0xf1102d2c1e1802f5U,
  0xfa331b280fdd060eU, 0x1824341ad7d7242cU, 0xeb0d17eae72b16eeU, 0xb2bf62c1a031f31U,
  0x20cbdee32e0e0938U, 0x341640132d0efc3eU, 0x1c1ae337f1eff9efU, 0x1c1a1703dee809f8U,
  0xe2416f9d92cecfdU, 0x280f0a280ef634deU, 0xfa0bf71720f0311bU, 0xf616e0dfce000a0cU,
  0xde253befedf117ecU, 0x1810e61aebf22e03U, 0x10d0e80b20f504cfU, 0x2cf91bf9f2eee500U,
  0x382ce91eeb1808f0U, 0xd3ecee0c15f1f220U, 0x23ea0fe6f31de4dcU, 0xff01f11b0327e42eU,
  0xc512f7191112f624U, 0x10fcf5f4f5fb1411U, 0xff3d0b191a0eeb36U, 0x343be72c07eb100aU,
  0xefdd28fe170df001U, 0x8dde83205e0fc06U, 0x9f0331720332eeaU, 0x2cec1deade0b0b09U,
  0xe8dc01f72fedf4U, 0x110bf324ef0a1513U, 0x3ee1021b3636e020U, 0x28203510d50d12f2U,
  0x14031411371100e7U, 0xf0040ad82bd226faU, 0x232c18150e2b0807U, 0xfcf014e72bed3a04U,
  0x1de62f08f3ff2513U, 0xb201c33111327ceU, 0xc12f6c803d1ec11U, 0x5f43027360c1706U,
  0xeedc22e21225ee39U, 0x21ffdcf7ed0df831U, 0x2d2efcd7003420f0U, 0xe9de1afbeb272334U,
  0xe8fd3bf51b1c172dU, 0xece3020ae2f82a12U, 0x505d9eff900dfU, 0x301e011e308e2e7U,
  0x111417e91932ec21U, 0x2aee0e2e1638ec14U, 0x1d0205220fe6f3e6U, 0x23edf7183d1ff01eU,
  0xde1beb0208eb18e8U, 0xe4fe1b24e2133d00U, 0x4ecf602ffc71917U, 0x21d6f6e8052ce902U,
  0x3000183af4080518U, 0xf401dd14ffe1f2d8U, 0x3ceae7e4031bdf21U, 0xd26d8daebd9f71dU,
  0x2703f42216e00e0dU, 0xed10f1fe210dc1e6U, 0xc828343a22def7feU, 0xecd21eef808e3f4U,
  0xd9f4ec03c3e114e6U, 0xe108e90021f0fae5U, 0x2a2a05c8d81fdbdcU, 0xcffe24cfd103e5e2U,
  0x3532e3f63318e7ecU, 0x142bed3329eef200U, 0xe3ffc6fa35e0d72cU, 0x3502341724f0ca2bU,
  0xf3153d08ed0b3a20U, 0xe0ff8371333f11bU, 0x210b0b1eecf7f72cU, 0xe4f72419e5f221fbU,
  0x20fb3319f4311907U, 0x210c04dcf91e0e09U, 0x807ee33fb21f4eaU, 0xf2c21f83bdde020U,
  0xf0e033ff2113180eU, 0xfadd0b09f33704e0U, 0x2f171cee1b18e916U, 0xdef628e5283b0b1aU,
  0x1538f32722371a2aU, 0x2332e2f80c2ef4e3U, 0x5252bf030fefbf1U, 0x31411e224e92439U,
  0x22d290cfe2516fcU, 0xeff7041f28ea0d0cU, 0xf8f901fffeff07fdU, 0x1fafa0504fb0308U,
  0x1f902fdf8080205U, 0xfc080205040402fdU, 0x8fe02ff0502fbffU, 0x702fdfd04fb0100U,
  0xfe04fef9fbfc04fdU, 0x50501fa040501fcU, 0xb040d09ff020507U, 0xfefe05000905050bU,
  0x80000fbf901ff01U, 0xfbfe0600feff01f9U, 0x7060806ffff04faU, 0x307fffafffc0e03U,
  0xf4f9f701050502f9U, 0xf03faf3f5faf0f8U, 0x20408090a0c1815U, 0x6f8f80108f8f601U,
  0xfc05f405fcf2ecf6U, 0x18211b0902140ef0U, 0xfe0904f4fa020605U, 0xf3fdfdfefb0507U,
  0x81203090df9f903U, 0xecf7f9edf3f9ff02U, 0xfd02fafa02fafffdU, 0x1c0c09070502fef0U,
  0xeff0f60909100109U, 0xf9f9fbf2e4e9e3eaU, 0xf03fdeef4fbfd04U, 0xf404f7191b1e230eU,
  0xeed4dceeebdff0f5U, 0xf8fefaf8fef7faU, 0x10211f1811fdf6fdU, 0xf1e5d4d6dbe3f001U,
  0xf9fc0401f6e0dfedU, 0x1203fefcfafcfe03U, 0xe8d9e1e50615221fU, 0x9efeff604fdffecU,
  0x202050702060208U, 0xdc021810261ff8f0U, 0x1a121014f4e7d5caU, 0x3fcf80f17080e03U,
  0x191f07fb03fbfa03U, 0xedd3c0c3e5fc200cU, 0x2d1f1b060019180aU, 0x2fdf9f9fef9001aU,
  0xe505110c1a261307U, 0x5f1e4e7f3d4c2ccU, 0xf8fd0521381e14f9U, 0x18210efefa00f907U,
  0xece2dedbfc0d1409U, 0x322b0dfcedf4dddbU, 0x6ff0701fdfc0b1cU, 0xf705010e1a1718faU,
  0xeef1e7dce9ebe9f6U, 0x70507181c0f0e02U, 0x13040cfaf4030708U, 0xf002eff8fb010e16U,
  0x1b0a0d02e4e0dcebU, 0xf203faf800fffe13U, 0xfa141909f904faf3U, 0xebe3ead9f0f3ebeeU,
  0xfd0006090f0d050aU, 0xdfeecedf007f907U, 0xefedeefffc1c2406U, 0xe080afaec02eee9U,
  0xf1fa06f900fc0605U, 0x1f2c2814feeff5f3U, 0xf7f5f6f8ebef0015U, 0xfe0304fc10161009U,
  0xf8f2f7f6fe02f805U, 0x50c133338352605U, 0xb180a0b04f90606U, 0x1fe03fbfd04fb06U,
  0x2e32331b08f9fffcU, 0xf8fc060113262d3bU, 0xfa0602fc08140c05U, 0x1fbf5ff00fefcfdU,
  0x1811210f010d200eU, 0x10a08fcfb0b0a0fU, 0xf604f9000703f900U, 0xf0fffbf3eeedf0f4U,
  0xf8ed050d10090507U, 0x30402f8f8f5fefeU, 0xe4f0fcf90302ff01U, 0xf6ecf1efe8f6eeU,
  0x4f8f7fbfe050007U, 0x4fe03fafc01fdffU, 0xe8eaeffaf7fd03fcU, 0x4fdf404faebf0e6U,
  0xfd0902050604fa06U, 0xfdf7f70004f806fcU, 0xf7ff02ff07fafbf7U, 0x1f80702faf803fcU,
  0x405fbfd080606f8U, 0x5ff090603070708U, 0xfbf908f7f906f803U, 0xf80504fcf808fe06U,
  0x1f7fb05fc01fbf9U, 0xfef70002f7060405U, 0xfb05f9fd0004fd00U, 0xf8fffef703fe05f6U,
  0xfe01fefc020500f7U, 0xf9f803ff03f801ffU, 0xfcfb0600050002fdU, 0xfc03fdfd00020506U,
  0x807fcfa01f8fc06U, 0xfe05f8ff0300060aU, 0xf9fb01fefb04f9faU, 0x30200f900f90401U,
  0x1000809060004ffU, 0x4fa04f8ff050306U, 0xd0007fa060302f7U, 0x1f110d0a0202fe02U,
  0xf7f6070518101321U, 0xfff9fbf90000fcfdU, 0xe0c1919140b05ffU, 0x191e2b251a07111aU,
  0xf6f6060a04fe0b0cU, 0x201e070803fffcf7U, 0x1e080b20141c1b18U, 0xfa010c0d0b15181aU,
  0x5fefdfff700fbfdU, 0xeffb0c0e181211fdU, 0x8f9080a07f8ef12U, 0xfaf7f5fdf5010308U,
  0x90c090af8fd01f7U, 0xf0e4040703f5edf9U, 0xf506fc0307fbe9daU, 0x2fc010300f903efU,
  0xc07effbff180002U, 0xe900f70a1b161204U, 0x204f7f8e7f5f9edU, 0xf0fc07fdfbfc05fbU,
  0x333f310f0d0b01edU, 0xede2e5ff0402060cU, 0xff05f704050302faU, 0xb04eae3e6eb050fU,
  0xfa0b080a21313024U, 0x3f9fdf7f3e3e7f6U, 0xe5e5f804fc000000U, 0x1f2607faf4eceee5U,
  0xebecfbfde9eef502U, 0x8fcfb06fdfefcfcU, 0xcacbdbe1e8e0f0f6U, 0xe8e4ff13110effe7U,
  0x6f9f6feebf4fc09U, 0xdde0e5ef04ff05fcU, 0x141af5d2c2c0d3dfU, 0xf1f1fe04f9e2f60bU,
  0xfbfefe00030307f5U, 0xd7d1e1efeffbed05U, 0xbf4e9051e2d04e3U, 0xf9f908050505040fU,
  0xfffffc0800fdfd04U, 0x122bfcdadaf0fcfdU, 0x50a130f1708ee08U, 0x9fc01fff7fcfb01U,
  0xe2f1fe090c0b0703U, 0x1b1416131018f6daU, 0xf903fe0914011b1bU, 0xfc1b171008feff02U,
  0x1f0f07e8f3f1f602U, 0x90d171926142325U, 0xf03f7f8fdff0404U, 0xe7ebfd000f1c0e08U,
  0x90c2529200003e6U, 0x5fa02050f0e130eU, 0x151a0b00fff90306U, 0x1a1102eaebe7f708U,
  0x71a191909141826U, 0x605f9f7fbfb0303U, 0xfffc080716180b0cU, 0x8121b0d0d1600f7U,
  0x102fb02fe091421U, 0xf05000b07fa00f7U, 0xc01fbf4fdf7f8f8U, 0xe100a11170eU,
  0x506fa01fffdfdU, 0xfe02f9ec0105fd03U, 0x140e0f0a150e1001U, 0xfc0001f8f9f60210U,
  0xfd06f8020405fa00U, 0x10203160407fb01U, 0xfdf9f9f8f6fffbf9U, 0xf7fafa02f803fdfaU,
  0x8080d0702f90605U, 0xf8f9f6eef4fa0d05U, 0xfcfd03fd03f7fbf4U, 0xfdf9ff04fff9fd05U,
  0xf4fefaf4faf9fef9U, 0xff04f9fefd01f5f4U, 0xf805fdf905fd0305U, 0x60600f9fcf90601U,
  0xff0002f7fe0602fcU, 0xfff6fb01fdfcfdfaU, 0xfb06050006000007U, 0x200000607fe01fcU,
  0xfc0100fcfcfd0303U, 0x6ff0909fc0901U, 0xfdff010303fffd06U, 0x306ff03fc09fc03U,
  0xfd05fffe00080908U, 0xff09ff0000010900U, 0x1209100e000a0101U, 0x502090a0603030aU,
  0x6fd02fd02ff00fdU, 0xfdfd05070007fe03U, 0xc06090d0e0a0708U, 0xff03fb080a050b04U,
  0x3060902050801fcU, 0xc04070a0709080dU, 0xb070a081401fc0dU, 0x6fd0606050001fcU,
  0xc0403040b0b0d02U, 0xfa110408fc03U, 0xfdfdfc0405000507U, 0xc080c0b00030707U,
  0xf9e5edf0f1f20906U, 0xb03fff4e9e7dfe5U, 0x304030905ff050aU, 0xe6f0f6f3fe08080bU,
  0xdedbd4e0f5f3e3dfU, 0xfe07060604fdebe8U, 0xfe010504fffb0104U, 0xf3f2faf8ebe5f1f5U,
  0xf0f0eef1e6ddd2d4U, 0x4fbff02fefeff02U, 0xf6e3f6fcfa060d05U, 0xedeeeaf6050f07faU,
  0x200fffaf8f2f6feU, 0xfcfffbff01070106U, 0x101517160c01f1fcU, 0xf9eefcf902f8f606U,
  0x90a07070306fdffU, 0x70c0ff9fefa0a04U, 0xfdfcfb09010a0d13U, 0x3fb05fffdf7f2faU,
  0x40501fefdfe0403U, 0x2f7fd0d0d102215U, 0xfbf4fbfaf4fbf1fcU, 0x301040209fe0305U,
  0xfa0e221e040d0800U, 0xfcf9010c0dedebffU, 0x1fc03060a01080dU, 0xe03fbfffd0303ffU,
  0x250de7f0eaf91323U, 0x703060e06ff040eU, 0x703090700000707U, 0xd5e4fe0e110401fdU,
  0x100700183d3502e8U, 0x90800040b100b06U, 0xf9f2f4fb08ff09fcU, 0x323f0adacedcf0f3U,
  0x5130e070afcef0bU, 0xfffe0601fbfcffU, 0xc2cad7e4e5f0effbU, 0x803fd172b3b0fd2U,
  0xfd07fc0601090500U, 0xeceafbff01090703U, 0x332717e3c0cde6edU, 0x10204fc0308151bU,
  0x60100fe06fe00f9U, 0xeddef1f6f3f5f502U, 0x20c132631241ef4U, 0x502040801fe13U,
  0xfff9f2fa090304fdU, 0x3029170ef8fb0001U, 0xfdff05170d2a2e36U, 0x707fd02fc00fb05U,
  0x601ff0907060003U, 0x20312c2b2d351c10U, 0x306fcfdfff50213U, 0xfa000c05060209fcU,
  0x17090cfffc03fcf8U, 0xfcfa02071a1f2218U, 0xfcfe02040304fdfaU, 0xf8f4f7f0f7fc0208U,
  0xd0209fdfcfbffffU, 0x708000403f3f7fdU, 0xfdfcfe0802020805U, 0xeaf8f706faf8fef8U,
  0xfb06fd03fbfcf6e5U, 0xfc0403fdfb030900U, 0xf2fb03fc040105fcU, 0xf5efe8e2ebeceff8U,
  0x7ff03ff070001faU, 0xfbfefc04feff0906U, 0xf7eef5f2f9f4fd03U, 0xfffcfafcfaf6fafbU,
  0xff05080708fe03U, 0xfc0206fbfbfd00fcU, 0xfb00020206fd0006U, 0x7040803ff020001U,
  0xfc0006fb000401f8U, 0x3010102f9fdfcf8U, 0xfdfafb0004f8fafbU, 0xfe0100f8fdf90505U,
  0x6fd05040601f905U, 0x6030603ff01fc03U, 0x4fafffff904fbf8U, 0xfcfbf8fa01fff906U,
  0xfefdfcfbfffa00fbU, 0xfe01fafafd040200U, 0xfe02f8fdfffdfcfcU, 0xfcf9fc0400fbf9fdU,
  0xfcfb0108fcfcf8fbU, 0x6fefafe0205fe02U, 0xfcf9fdfdf7ff02f9U, 0xa0af9fbf3f1f6f4U,
  0x4fbfdfd04051611U, 0xf8ff02fafafe03ffU, 0xf0f0f3ece8f1fbfeU, 0x110906f7f5fcf6f9U,
  0xfafffc03fc050d10U, 0xe7edf3f3f9f9f803U, 0xf4ff12140502f5fcU, 0x9130bfdfeecdeddU,
  0xfafa0103f903ff06U, 0x1a120dfef9ecfaf3U, 0xfbf6f3ddebf20712U, 0x503080e1f1d0cfaU,
  0xf6fbf4f5f8fffa05U, 0xe7f1041e1c0e0700U, 0x241f0d08fcf3f6daU, 0xfbfcfe0200021026U,
  0x28130d05fef2f2f8U, 0x900f8e6daf9051cU, 0xfc0510282a170e0bU, 0xaf5f7f7f7ff0102U,
  0xf4051526260d080dU, 0x27211301060c0ae4U, 0xfcfdf905f9030d18U, 0x9f0fcfe0efcf9faU,
  0x7f7f0e3e4011e21U, 0xf8080511140602feU, 0xfb00efeef7f8fc02U, 0xdbed272403e7e9f4U,
  0x121101faf700f5e0U, 0xf7feff0404030516U, 0x1a07ede8f2fbf1efU, 0xfbfff0ebe4e90b31U,
  0xfb0103131303f2f5U, 0xe9fbfaf701f7fd02U, 0xdeea011c2c18ece0U, 0x6f8faf5f2eaf6ddU,
  0x305fdfb00ff0505U, 0x2b2319f7f6f5f8f5U, 0xf2fbf5eacad4f81eU, 0x1ff040b09f4f2e5U,
  0xfef8f8fbf601fc03U, 0xf3d9ee2e35302610U, 0xfffff7f2f800fdf0U, 0xfefa01fd02fffe08U,
  0x403d33170a100bfcU, 0xfef6f4fcf8e0e119U, 0xff0101fa09fbfff7U, 0x1c190d01fb030502U,
  0xf2dbdf1121342d1eU, 0xffbf2ebe8ebe0f5U, 0xf8fb0200fafcfe09U, 0x1e2b36291d1a0902U,
  0xf3e8e2e7f1e6da07U, 0x5fef907020304f5U, 0x1d0709fdfcf90604U, 0xf7e3e10f2a382f1dU,
  0xfc0707fafee6dbe0U, 0xf806f8fb05fcf7f6U, 0x2a252b1413070405U, 0x4f0e5e9f7f0f501U,
  0xf902fefc0206f9faU, 0x140c0600f7f8fcf8U, 0xf4f7130e201f210cU, 0xfc02fbf6faf9eef4U,
  0xfc01fa0402fc05faU, 0x272b2316f8fbf7fdU, 0xfef6f2ff060d212aU, 0x4fb06fc06fdf8f4U,
  0xe8eaf0fc0202fdf8U, 0xf0c1e231c090900U, 0xf7fcf7f7f6f003U, 0xf80001f7f903fcfdU,
  0x200f7edeaecf0fcU, 0xfdf4010910060900U, 0x1fffe000406fcf6U, 0xf20001fb05fcf9fbU,
  0xf2f1fdf7f3fcf2faU, 0xfe02f8fffef4fa00U, 0x2fff9f902fcfef9U, 0x1f80500faf80005U,
  0xf9fffdfb0305f9U, 0xf7010302fbfafb05U, 0xf7f9f9fffbfe0400U, 0xf9f8f8fb03000103U,
  0xfd04f803fef8fffbU, 0xfa00fa02f902f8U, 0xfdfdf904fff9faU, 0xf704fafdf9f800fbU,
  0xfdfdf8faf701fffcU, 0x1f901fc04f90301U, 0xfdf7f7fff7f7fcfaU, 0x100fefffbf7feU,
  0xf9fcfcfafdf800fcU, 0x7020402fb0202feU, 0xfdfffbf3fcf8fefdU, 0xf9fb03020103fd00U,
  0x60104f8feff0204U, 0xf6fd05120d100e0eU, 0xfcf9fcfaf9fdeffdU, 0x2faf903fe0105fdU,
  0xd101414100d04ffU, 0x6fbfefef0f2f310U, 0xf8fdff0907ff0702U, 0xf0d0c0202fd0204U,
  0xf2f5fcf9fa0c0d10U, 0x102fc01fff4eee1U, 0xf9fef7f9fcfa0302U, 0xe8eb00080508100aU,
  0xf1dae5e0e0f5eff3U, 0xf8fc000002fffdf6U, 0xfbff0505fa01fc04U, 0xdfe3f4f3e9eff0f4U,
  0xfa04fcfd06eef6e1U, 0xfff6f9fa02030705U, 0xeee5f1edecedfef8U, 0x1b0605fcdfdeed00U,
  0xfd05fb00f5fc0d1aU, 0xecf0eff1f4f6fbfbU, 0xe5d0dd07fbf3dde5U, 0xf4f1fd0d160700f5U,
  0xf3ff03f70404fbf6U, 0xbfaf1eef1e6f2f6U, 0x304fe090bf5ef14U, 0xf80100f9e5def500U,
  0xf7eff2eefcfd02f8U, 0x1e1d24272523040bU, 0xe9e5eaf0ecf0fb15U, 0xf9fc04f7fbfafef1U,
  0x2f201925090102faU, 0xeef6060d0f20403dU, 0x4f901f2f4efedfaU, 0x1a0907fb02fc04fdU,
  0x17241c201010231dU, 0xecf9f0f3faf1071aU, 0x6f9fa02020306fdU, 0x8031017120c0605U,
  0x1f7fe101921220dU, 0x404fc05010809f9U, 0x120a050408fdf9fcU, 0x309170afdf2f8fdU,
  0x12181b01060efc04U, 0x7fe03fafcf9040cU, 0xe8dfecfb0a110808U, 0x40b0402030300f4U,
  0x1fafb010d0f1b04U, 0x31d130f050601fbU, 0xedf7fce0dde5f5fbU, 0xe14111101050d05U,
  0x8ff030401fcfd10U, 0xe9eaf7f3040b0f0bU, 0x60c181207f7e0d6U, 0x3ff05050f0c1419U,
  0xc01ff00fcfcf9U, 0x1003e1e4f0f3fb06U, 0xa0f201902111413U, 0x300f9fd0100fb06U,
  0xeef1f401fefdfcfaU, 0x1f0e17fcfbf7f8f1U, 0x3f800fa06081c1fU, 0xfbfc0101fff8fbfdU,
  0xe7e9eae4f1f9f9f0U, 0x20b0d231e0efae2U, 0x5f800010004fdffU, 0xeff9f8f3f3f902ffU,
  0x100ef8ece2e0e7e6U, 0xf804fbfb05090b16U, 0xfbf7fafb020000U, 0xf0f4eee6eef2ff00U,
  0xfb0109fefcf4f1efU, 0xfbf7ff0100000404U, 0xf5f5f4f6f8fcfaf6U, 0xf4f1eeedeff7faf8U,
  0xf8fa0303fdfbfcU, 0xf5f9fefa04000300U, 0xf6f0f4f6edf8f3ffU, 0x2fff700f9f0f3f3U,
  0x10103f7010404f9U, 0xfffc0003fd0402fcU, 0x102fcfff8fd00faU, 0xff00fb04fefcfff8U,
  0xfdff040203fe01feU, 0x402fcfd03fe03ffU, 0xfcfd04fcfcfe03fdU, 0x20203fffeff02fdU,
  0x100020101030003U, 0x4fcfefefc04fcffU, 0xff02030401050401U, 0x5feffff020004ffU,
  0x603060704010204U, 0x3fe0400fc050808U, 0x40304fe03040301U, 0xd090702040002fdU,
  0x40b0e0b0c0710U, 0x300040003010001U, 0x6fffdfe01fc03ffU, 0xa0b070a100d0d09U,
  0xfcfafc05010202U, 0x10402030200fd02U, 0x70708040502fffdU, 0xfff7f8060200fe00U,
  0x2fdfafffb0002U, 0x5030004040400fdU, 0xfdf3f2fe09130903U, 0xfefefe03f8f5f501U,
  0x20401ff0304fbfcU, 0x1a130c0c0a080405U, 0xfef8ff020006050bU, 0x2ff00fcff02fbU,
  0xfffc07030003ff04U, 0x9110b0d1411ff06U, 0x508020500f20affU, 0x1010203fe0304fbU,
  0xfaff0206fef800feU, 0xf5f402000408f704U, 0x202fef9000703ffU, 0xf1edf9000502fe05U,
  0xf7f6d7d5e2eaecefU, 0xfd03faf6f2f3f900U, 0x2fdfdfefd03fd00U, 0xd1d0d2d9e1e1eefaU,
  0xf3f4f7fff9fbdcc0U, 0x1fcfffefefdfbf1U, 0xdadbe0f5fc0303feU, 0xc13f6d5d1d1cdd5U,
  0xf8f5fef8f1fd050bU, 0xfa00fefefc0000ffU, 0xece6d9e3dfd9e0eaU, 0x200050d132024f9U,
  0x1fd0701fdf90500U, 0xf1f0e8f0fcff0004U, 0x122622120803fbf7U, 0xfc00060b0f150008U,
  0xff04fd0203060501U, 0xa0504040506fdffU, 0xf0901fe02191f11U, 0x2ff0205fbf50107U,
  0xe13070706fffd02U, 0xfc0e130801fdfc0aU, 0x7fb05ff060800f9U, 0x404ff01fe03050bU,
  0xc0300060f1a100bU, 0x5050a0309080a0fU, 0xff0b0c05fe0204U, 0x1514160e070001ffU,
  0xc070c150f07070eU, 0x80a0000070d180fU, 0x202fc02fd020710U, 0x9070e0e13100d0eU,
  0x40e17121714100eU, 0xfc0204060b0603fdU, 0x130a0f0804fd0001U, 0x181205080804090eU,
  0xa04fdfbfb070b18U, 0x70203fe04050208U, 0x103fffb0a090c0aU, 0x2030a110906U,
  0xfdfd01000401fbf6U, 0x4040803060301ffU, 0xfdf9fffd01fcfcfcU, 0x402fcfbf6f1f5fdU,
  0x302fd030400fe00U, 0xf9f9fdf9fe030904U, 0xf3f1eff9fff6faf9U, 0x5ff02fefcf8fcf6U,
  0x10204fe040400feU, 0xfef90109070402fcU, 0xfcf8f6f6eff0f6fbU, 0xfcfdfe0101fffe04U,
  0x50b0604fffd02ffU, 0xf5f8f7fe00fb0201U, 0xfe0302fefd00fcf7U, 0xfefffd03fe0403ffU,
  0xff00fafbfcfffffeU, 0x2fffdfbfffcfafeU, 0xfefe02fcfc03ff00U, 0x5000000fefe0503U,
  0xfe0303fe010100fcU, 0x404fc000202fc00U, 0x3010302ff0600U, 0x5ff06fe01fc04ffU,
  0x1050000fbfffb04U, 0xfb0202fc0105fb02U, 0xfdfe02fb01fcff01U, 0x3fafd04fa0202ffU,
  0x30106ff0300fffeU, 0xf9fffb0103020303U, 0xf6f5faf8fbff01U, 0x302fafd0202fbf6U,
  0x101fcfc05fcfb05U, 0xfbfcf8fefd00fefbU, 0xf9fefef5fbfbf9U, 0xfb0404fcfd00fb01U,
  0xfffbfd03fd000200U, 0xf8f9fcf7f6fefcf7U, 0x303f7f5ff0001fdU, 0xfe00fa0005010700U,
  0xf703fff901f5fc00U, 0xf4ede2e8ec00fafcU, 0xfbfcfd050405fefcU, 0xf6fd050004fc0002U,
  0xf102fefffaf4f303U, 0x10180dfaf6ebe7eaU, 0x2fdfc03fe05fe01U, 0x90408fe070100ffU,
  0x4fcfbff01101303U, 0x60501020c1a0d04U, 0xff0806fd09fefd05U, 0x610090f00fc0508U,
  0xd161905fe0505fcU, 0x4ff040105020a0dU, 0x5020903fd0707fcU, 0x1b180ffff7021412U,
  0xfffd070b0608171aU, 0x9090806060201U, 0xdeed0d19200d0afcU, 0x3ff131c30280fefU,
  0x4ff0306ff07U, 0x211b02fa080f09feU, 0x212803cecdd7f10eU, 0x2fc05fafa060912U,
  0x50b0c08060104ffU, 0xc5c0e3fe1816080bU, 0xfa01f6121c20f6cfU, 0x204fb030300fef6U,
  0xf1060d11170a0d0bU, 0xf1001d6c7ccd7e7U, 0x300fdf6f2f7f601U, 0x110a1210040305fbU,
  0xe3d9d9dde2fd0712U, 0xf7f3eb00070408eaU, 0x2fefefdfafbfcfaU, 0xf20a070d07050c05U,
  0xfe0fffdbd6d9dde6U, 0xfb05f8f3fef8eef7U, 0x120b0802fffc00fbU, 0xd5e3e2edf2050519U,
  0xfb0604fbfd0508e4U, 0xf80603070401fffcU, 0xf407fe090603020aU, 0xfd170bf5ede1ede7U,
  0xfe04fdf803060f06U, 0x1fe0201f8fd0301U, 0xf5f7efe7f3f6f0feU, 0xf904080b04130b02U,
  0xf70401fe0105fdf4U, 0xf4e8f2f7050204fdU, 0x81007fbedf5f6f3U, 0x3000300fcfe0b0aU,
  0xfff301fcf9fffd02U, 0xdee301f6f5e1f2f5U, 0xfcfb04060efb00f8U, 0xfb05fefdfe0301ffU,
  0xf5faf4f7f4edf1fdU, 0xfef7ed04f3e7ecfcU, 0xfdfafcff02f5f800U, 0xf8f9fcf6ff05feffU,
  0xf4f2f5f907051002U, 0xff02fafffdf7U, 0x202ff0005fdfb04U, 0xe1606070b0e07ffU,
  0xf9f603f90802effcU, 0x103ff03f9fafcfeU, 0x907090606040305U, 0xf7f9fdfe030a0b01U,
  0xff01fbf6f9f4fef8U, 0x6fcfb0400020603U, 0xfafb0e0801f90603U, 0xff070400f6f6faU,
  0x6fb0505060809feU, 0xfefb00fb05fb0201U, 0xfc030500fcff0800U, 0x2fe000403040206U,
  0x105fe0700fffefcU, 0x30201fffd000303U, 0x708000201fe0303U, 0x20000fdffU,
  0x305fafbfffafd01U, 0xffffff01fcfffb04U, 0xfdfdfc04fe02fffdU, 0xfafe03fd03fdfbffU,
  0xfcff02fa03000504U, 0x50204fdfc0503fbU, 0x503fb0200040600U, 0xfd05fa04fcfdff00U,
  0xfcfdf8ff020000fcU, 0x5fc05ff00fd00ffU, 0x10202fffc01ffU, 0x701fefa02050103U,
  0xfef9f7f8fafdf8feU, 0x1fe02fbfcfdfefdU, 0xff020102020004fcU, 0xf8f7f70401ff0006U,
  0xff07fd01fdfafbefU, 0xfb050401fe000107U, 0x1510100f0e01fe00U, 0xfb0405fdfe051217U,
  0x2050302020006fdU, 0x90a0cfeff00fd03U, 0x181b181e1d1b2313U, 0x60f14170e1d251fU,
  0x70702fefbfb0a0aU, 0x12091116030c0307U, 0x14172c17110e0d14U, 0x4fd05fdfe0b0e14U,
  0x6000104060100fbU, 0xbfbeff500fd030eU, 0xf3fd03010116070fU, 0x2fcff0101ff04faU,
  0xe7ecfa0902fefcffU, 0xf4f9f1e0e4e1d2dbU, 0xfd040003f501f2f4U, 0xf7f6fdfefe040406U,
  0xc9c0c2c5d0d4eb00U, 0xf6fce9f1ebf4d6d1U, 0x301fe040505fcffU, 0xe2e8f6fcfbf2fcf9U,
  0xfcfbe6d7d3d4e1efU, 0x4fe05f9eff7f2f4U, 0x4f0eef6fd00fcfcU, 0xe2ea03070a110003U,
  0xf1f20004fb01e9f1U, 0xfc0002fd01fa00f8U, 0x1b20120a0a00f4f4U, 0x1601f5f9fef10e1bU,
  0xfd01f9f5eaed0214U, 0xc09fefefffd0303U, 0xf0d0c1b0f19140aU, 0xf6ff0217250c0609U,
  0x20500fffffa03ffU, 0x30b04fbf802fefdU, 0x1d151b0916020a01U, 0xfe020105fb0a151dU,
  0xebf6fb05fcfdff04U, 0x1e080e04f1ede7e6U, 0xfd070915161f2c23U, 0xfdfffb01fbfefafaU,
  0xf5e9e8e5e4f6fefdU, 0xd252620200b0804U, 0x1fffbfdfafd0d0cU, 0xf0f7f903ff040203U,
  0x150003f7f1e8ebf2U, 0xf8fd00050e13241dU, 0x5fcfbfbff030105U, 0xf5eeedeceaf4fbffU,
  0xff00010b0502fbf6U, 0xff05fefcf7fc00feU, 0xeaefff0401fc01ffU, 0x2f4f9e5e7e0e7f6U,
  0xf7f3f8edefeee5f3U, 0x3000003ffff03fdU, 0xf1faedfdf4f4fcf8U, 0xedf1e8fbf6ef02fbU,
  0xfe01ff0002f5f1f1U, 0xfdf6f4fd02010402U, 0xf9f5fa0c0902fbfcU, 0xfbf3eeedf2f0f5fbU,
  0xfcfeff04fcfcfe02U, 0x1111160f0c050a09U, 0xf0f7f1f5f907f9ffU, 0xfbfb05ff00faf5faU,
  0x17060e0501fffefeU, 0x40c0a060c111412U, 0x1fb00f9fdfbf303U, 0x5040101fdfdfcU,
  0x1b0f1714080007ffU, 0xff0603050d161116U, 0xfefe04fdfbfefc01U, 0x702f9fefb000600U,
  0x80a0a060b0908fdU, 0xfafffb02fe080a03U, 0x5fbfb01fe05ff01U, 0xff0506fdfcfbfbfcU,
  0x303fc030203fdfbU, 0x3fcfd04fbfbfd04U, 0xf0e612ef1fd4d8f1U, 0x14e6380f3605ecddU,
  0x524f339ef030226U, 0xf7f4080704eddc01U, 0x382815dde805190eU, 0x3902e80fd329df09U,
  0x38f70815fb31f7f6U, 0x1cf9dbf2e72e2330U, 0x322ee2ef2e1d3a25U, 0x291c0336ebce3303U,
  0xdcefd6f938ff221fU, 0xf73413da36d3e2d0U, 0xd0151b32f521f812U, 0xd7db30e7f2130e32U,
  0x251511fe22ed14f0U, 0x1ee6d01939fa1fddU, 0xe812ea31f3e91cfaU, 0x37ffdf22dadbdfedU,
  0xf6e7143228de1b28U, 0xfc2d3ae40d37ef25U, 0xbdad71df317f822U, 0x1f90cfd2c0cd41aU,
  0x22e40cebf4ec2bf7U, 0xea0c1be626211cf0U, 0x3927d5f92f07fafeU, 0x2339221a0f0eda04U,
  0xc72b1839241000e5U, 0xfa2ed3dac0d5eec8U, 0xfa0bd3e3d427e2e6U, 0x133f0c1602c11519U,
  0xef2f619fe31dc37U, 0xd9d82ed3e0130e1dU, 0x12f5d7ffdc25032cU, 0x8fcea0029f53304U,
  0xe6012501d9133b08U, 0xd0fb1d2af3261900U, 0xd72740e50ed2c0dbU, 0x27d33b122a20133fU,
  0xd3f5e1211dff3b2fU, 0xdf2c1dc9d2f90f11U, 0xdb1921e8f4f8090bU, 0xeb3b050f2a021a1aU,
  0xfb16e7daf1f63becU, 0x1c373707f617dbd0U, 0xafdfc1ffa2a1a03U, 0xf13328e4d009d139U,
  0x392b2824090ada18U, 0x1d00e208df39e52cU, 0xeaf517e9d0d9c610U, 0x241d11e4e91c33e0U,
  0xe31811f610f2340fU, 0xe7dd10daf903f1dbU, 0x1b37390fe72fdc38U, 0xff14e902e3cadf31U,
  0x5d324fa092b1b08U, 0x200d19f90d0ad8d0U, 0xc33609072cf436f1U, 0x2af424e21a1601cdU,
  0x330728f828f12021U, 0x20e106ede0163b3bU, 0x212b11e9f72c2a1cU, 0xe3dddd07080615e6U,
  0xe536dfd3d503f435U, 0xcd2d8d00a11fb08U, 0xe5d70118180a3af9U, 0xd12d0de2e5e81fd0U,
  0x243be532261ed2f5U, 0x2a3e03e72c01eafeU, 0xe61f29282ddb0229U, 0x17fa2b0bea18e8f1U,
  0xf9f9d7eaf7fc29f0U, 0x2cebde1f0c13f91bU, 0x310addd6e732e6c7U, 0xf513f2e9291c2ed4U,
  0xfbda1bd5fe3c21dcU, 0xe70cf7d82522042aU, 0x203dd37ec23eb39U, 0xe8f7182ff3183a0dU,
  0x2d30ee0a3b16ffdfU, 0x10f0039fa19ec3aU, 0xe1de3710dc2e221dU, 0x13deda01e5f037e3U,
  0xf62818f3fe0d10dcU, 0x383a100b39e7281fU, 0x1c282a0826030ce3U, 0xf314f9220325e9f9U,
  0xe50e30150425fe0bU, 0xec34013a0938fa24U, 0x322220ec021fd00cU, 0xe237e23aeee618deU,
  0x3437f31a3610e318U, 0x3705d01f23faf8fdU, 0xe7f72038fc222427U, 0xe403d5fc07312fe5U,
  0xd2f2f1e72dd4f4f7U, 0xe93afbebec16d9e6U, 0xe713de1802e0f1f7U, 0x293811e4d0d8d3f8U,
  0x7fffbfffefdfdfdU, 0x3fb0207fe0604fcU, 0xfbfd010103fdfd02U, 0xfe020003feff02fcU,
  0xfd0706fd06ff0104U, 0xfc08020604020304U, 0x2ff03fb00fe04fcU, 0x806030604050302U,
  0x303010bfd06fcfeU, 0xfcfd060300000709U, 0x2030003ff010005U, 0x1090903050706fdU,
  0xe110b070d12040cU, 0xfefbfc01ff080508U, 0xfe08fe060205fdffU, 0x7f8f8fe00060401U,
  0xfd04020b06160909U, 0xfb01fb0403fe03feU, 0x10d030707ff0503U, 0x30f031215131a04U,
  0xfe0203fc0501fe03U, 0x30105fffefc0207U, 0x311e1915080a0306U, 0xeff3fa0908161d2eU,
  0x702fc05050303fcU, 0xd0a0b07050600fbU, 0xf0d212e272c0e16U, 0x50502fcf1f5fc0bU,
  0x1fafbf801040202U, 0xf10fa1009fc0a0aU, 0xf0e6f3f1ebf7f8feU, 0xfefdfbfc020403eeU,
  0xfdf9fa1107fefd00U, 0xe7e0d3cfe2efe7f1U, 0xfefb02f2eae7e5e5U, 0xfa05020607050000U,
  0xc4c9e1e3eeeafd05U, 0xf1e3dddfd9ded4c9U, 0x706000706fff9f1U, 0xdfecf6edfb00fa05U,
  0xf2fefce7d0c0d9e5U, 0xfafffff6f3edebU, 0xf9f6fb0601010104U, 0xebdcc5e2f8fff5f0U,
  0xfd02fa06fa0300f9U, 0xfe04fdfdfbfef702U, 0xf10902ecf9f90002U, 0x3f3faf4efebdcdfU,
  0x10604040202050aU, 0xf1faf3fcff060606U, 0xfaf2dbe0f209ff00U, 0xa020c140204fcfdU,
  0xfbfe07fd06010101U, 0xeb04fbf1f6fef6fcU, 0xa0b1503fbe1e3e5U, 0x703fe0906041424U,
  0xf5f0f9f502000601U, 0xf6e8dee0eef2ece4U, 0xfb020a130e0d0101U, 0xff00ff0407fcff06U,
  0xe6f0f0f6f1ebf8faU, 0x151506f205f9d8d9U, 0x2050603f7fc0a07U, 0xf3f0eefa03fcfb06U,
  0x9f6dad4e7fdf6f6U, 0xf6fe040b0d15110cU, 0x10802fd000407f8U, 0xf8f10003f8f6fcfaU,
  0x50407061205e5f4U, 0x2fffb02f5f9fb08U, 0xf3f7020004fefcfcU, 0x22200dfcfafdfefdU,
  0xfdf5effc07030c12U, 0x5fe0206fefbff00U, 0x100803ff03fc0307U, 0xf403fe222029211bU,
  0xfefefcf9f2f9U, 0xf7f200fefe020403U, 0x231e191b1203fa00U, 0x3f7f7fafd030f21U,
  0x4fbfefd06000507U, 0x700faf3f5050907U, 0xff010a060a06ff03U, 0xfbfefb0200fcf9fdU,
  0xf0a0a0404fefefeU, 0x5fcff0505020a06U, 0x1fd01fe03fd1005U, 0xfd05fe0005fb03fdU,
  0x502090c05020204U, 0x609fefcfe0e0b13U, 0x3fc010002ffff09U, 0xff01050602040406U,
  0x9070905060a0102U, 0x70706fe0b050b09U, 0x700fdfe01feff04U, 0xfe06fd07ff02fd05U,
  0x3fc04040006fdfeU, 0x3020402fc050001U, 0xfb06030202fa0603U, 0xff06020201070107U,
  0xff00fe0402fffe01U, 0xfc07000107fb0700U, 0x60207fc05fb0305U, 0x106020600feffU,
  0xfcfdfb01fb040201U, 0x6ff05fa0106fefeU, 0x702fe010604fdfeU, 0xff0100fe06fe0708U,
  0x5fcfd0501fdfffeU, 0xf5f7fffcff0307fdU, 0x50b040a050105faU, 0x4ff0003040a0004U,
  0xfffe04fc01fc02feU, 0x231308100c06fe07U, 0x20000feff0b0f1dU, 0x500ff0702030804U,
  0x1a05f7fa07050202U, 0xc0d17202125261eU, 0x40303000700040bU, 0x3030100fe07fdfaU,
  0x19191a1f1404f7fcU, 0x8090405090e0d0cU, 0x2fdfa0705010e0bU, 0x120d0000f9f302fdU,
  0xe0307191016fc18U, 0x50507140504f806U, 0x200f9f902fefcU, 0xf8f1ff0612150f04U,
  0xd06000301fef9ffU, 0xfef9ff07ff02070dU, 0x1118080c03fff2f8U, 0xfcebf2f1f1f2e9faU,
  0x4040d08090703feU, 0xf8efeef8fbffff01U, 0xfd03f70a11090704U, 0xf6f9effc030806fbU,
  0xfefd02fb00080800U, 0x901f6feeaeceaf4U, 0x60f1b131831221dU, 0x2ff0afff5f4f703U,
  0xf6f2f2f1020002feU, 0xb2d291f2916feefU, 0xf7f2fcf8f807130bU, 0xfe0200fefafdf9f8U,
  0x1500f5f8ebe5eaf0U, 0xf8fd0e181b202c1aU, 0x3fefcfeececf5ffU, 0xe0e0e6fb02010400U,
  0x8190a04f4dae8e5U, 0xf9fdf8faedec020fU, 0x3fc00ff01fcfbfaU, 0xd7c6cdd8d9dde4feU,
  0xfdfaf3f9f80b0efdU, 0x403fffdf7fa0203U, 0xe2ebe8fcff00fdfcU, 0xfff4f1dec8c2cad5U,
  0x70804000508f402U, 0xd0003fd0203ff06U, 0xc6c0d5eaecf5fbfaU, 0xd150e0005f9d7c7U,
  0x3fafe03020600U, 0xa0a090e0603fffcU, 0x8f6dfc6d5d8e6faU, 0xf8f601060b051307U,
  0x11fefefa0501f6fbU, 0xf2fe030d08140f0eU, 0xe1815130ef7ebe0U, 0x705f905fdfcfbfdU,
  0xb15100e03fffd04U, 0xbfaf8f20e0e1818U, 0x1040509041b2715U, 0x4fc05010500f902U,
  0x19161319151d110aU, 0xfe021f170a060b0bU, 0xfdf9f900faf4010eU, 0xa010b0a05fd01ffU,
  0x1c11130e24140104U, 0xfdf6fd00fb040b1cU, 0x8080500fd06fffbU, 0x13070707f7030205U,
  0x1f90213141c1312U, 0x302fffdf8fef8U, 0xa01040400060007U, 0xfd04fb0611231d0aU,
  0xfbfafefb00f6f605U, 0xfa0502fdfc060200U, 0x2190d090f0105fcU, 0xfdfbfc06fdf9ff07U,
  0x1fdfa030104fbffU, 0xfbfb05fffdfffe05U, 0x2fdfc04040c0905U, 0x5fefc00fffafd03U,
  0xfffbff04fafb07U, 0xfe0206fffe05ff04U, 0x1fd0302fffffdfdU, 0x703fafffd0501fcU,
  0xff03fdf9ff02fbf9U, 0xfefd0001fbf7fc00U, 0xfbf60202ff030304U, 0xfaf6f9fdf90403fcU,
  0xf8f80204fa01f8feU, 0xf900fefa03fcfafbU, 0xf8fcfff702000102U, 0xf8fefa0303f9fdfeU,
  0xf6fdfafffffc0402U, 0x1fafbfbfc02fcU, 0x20300fff903fffcU, 0x409fefa02f7f800U,
  0xf9f8fafc02030300U, 0x1f9f9fdf7faf4f9U, 0x50501020301f803U, 0x3030a17180f0606U,
  0xf3f7f4f5fd0206fcU, 0xfaf7fb000201fcf6U, 0x110d0b060d02fbfcU, 0x171c160a000b0a0dU,
  0xf6040600f9090d11U, 0x60afcf803faf700U, 0x230e1a0c0711fe06U, 0xfe0f13160a20131bU,
  0xf9faf8f9fb03fb05U, 0x10fd010d09080303U, 0x1216091b1c2d0e05U, 0xfe01f804ff0d1505U,
  0x2080703fbf6fffdU, 0xb1e1a12ed01f4fdU, 0xd0c020f14041814U, 0xfbf8f9fef9f90306U,
  0xeaf1f3fcf8fe08fdU, 0xfff9fcfff80001faU, 0xf7ff010c0e0600fbU, 0xf2ecfcf60404fcfdU,
  0xe4e3f9f7eae6eaedU, 0xfdf800f8f800f3e9U, 0xf70202f6fd04fbffU, 0xeef0ecdedef3ecf9U,
  0xf5fee8dcd4eafaf6U, 0xf9fe00faf9edfaeeU, 0xece7f2f5fafaf9fdU, 0xd6f1f2fc070208f2U,
  0xf3eaf6f1fefbf1dcU, 0xfc01fdfd04fbf7f9U, 0x31208feeef0f5U, 0xe9f3e1dcdafcfff4U,
  0xf8f7fdffefe3ebf0U, 0x4fff5f9f8f9ff04U, 0xea1105fbf2ee0100U, 0xf1f0ebe7e1ddd0c3U,
  0xfb03fcf6010401fbU, 0xf8ee000202fff5f4U, 0xdbccd0d6e4ff1901U, 0xfafcfefcfef4fbf2U,
  0xf3f5f6f603f9f9fcU, 0xd309261905fcfff7U, 0x804f9fbecd9c8d4U, 0x6fdf9f8fa04ff06U,
  0xf702f0e7f1eff4ffU, 0xf7e8d9cbc9ec0f0aU, 0xfd04fdfe040803faU, 0xf1edfafffdfd0004U,
  0xcbcbeaefe9f4efe6U, 0xff0c0a0603ffefe2U, 0x5f8f7f8fdfe01U, 0xfdfbeaf0f800ff02U,
  0x131515fbe7cce9f2U, 0x300fafc0f101515U, 0xfcfd0503fff803fcU, 0x2809010a02f8fbf7U,
  0x8131420161f2d26U, 0x40402fc010100feU, 0x9f404fb0603ff0dU, 0x2e2330373c3e221dU,
  0xf7fffb0712141720U, 0x60b1005fdf7fa00U, 0x393b36292a0a1310U, 0xa1315172c27232bU,
  0xfffff800fcfb0000U, 0x372c2915130804fdU, 0x151f28333040332dU, 0xfb02ff0606070a19U,
  0xa02f9fa05fb0401U, 0x213328231d141912U, 0xfcfdf7ff0c151d19U, 0x304fff8fa01f700U,
  0x5ff0a090803f4f6U, 0xfc04fe06ff031107U, 0x2faf7fc0103f8faU, 0xf4fef8fbf9ff0301U,
  0xf8f3f9fcf6f4f8ffU, 0xfc0302fbf9faf3f7U, 0xf9f8f9fb04fe00U, 0xf8fdf7faf700ffffU,
  0x1010000fb01f7fdU, 0xf6fafff901f7fb00U, 0x30304ff08090107U, 0x804fb0302fe0008U,
  0x401fc0809fa0704U, 0x802fffcfdff0106U, 0x2fb08fa040300fdU, 0x4030505ff0a050aU,
  0xfefffd04fb030607U, 0xfdfb070a01fe0205U, 0x1fdfdfffd040306U, 0xfc0101070108fffcU,
  0x208fdfc0a000004U, 0xd01fd020401fb07U, 0x3f40606fd0f0802U, 0x806fb02fa04fdfcU,
  0x2fe08020508fcU, 0xfb0a14150b0c0a04U, 0x2f4faf5e7ecf5faU, 0x2fefafd06fefef9U,
  0x2060b06070c0704U, 0xe1d7d4eb0c081412U, 0x6fbfc00fae2dedcU, 0xf8fcfffefc0802feU,
  0xd1c25081001f2fdU, 0xe1ddd4d7c8e5f20bU, 0xc06fa0101faf4edU, 0xd03fbf2f704f8fbU,
  0xd7eb041823131a15U, 0x2fcf9ebd9d3d2d1U, 0xfafd010a0707080aU, 0x2019090e0a0c0b10U,
  0xe1e5eaf6fb0e0d0dU, 0x902fd0afcfff1e2U, 0xff1712050502fb06U, 0x152c2a140e1909f9U,
  0xfe00f4e6ddf00014U, 0xff03020b0efc0803U, 0x30c00e5efff05feU, 0xed02071a2436321aU,
  0xa0507020505efe1U, 0xf60b030a030d0b0bU, 0x3940402811040befU, 0x702f2e8fa191b3bU,
  0x40413170a0afd07U, 0x1400f8ddf0020cffU, 0xd1823252c363d33U, 0x5fdfeff0107f4fcU,
  0xee0101010400041bU, 0x1f1e1d151207e9deU, 0x8fa010505121d19U, 0xfc00090a0b060208U,
  0xecf2f4f3e6fb0701U, 0x91416130d2d15f5U, 0x2ff0afdfbfafd03U, 0xfd1a02fef1f902fdU,
  0x131d2600f6e9eeeeU, 0xff0403fc06020917U, 0xf6f20a0a0002fdfeU, 0xe7d8d9f709201600U,
  0xf0f903060409250eU, 0xf6fe0403fe0003f8U, 0x12220df8f1effafdU, 0x100b210ceedce609U,
  0xff06fdf1fbfe00f8U, 0xe5e9ebf8f804fdfcU, 0xf0e1e401252608fdU, 0xe4fb03f70c1e1603U,
  0x803fc03fefcf2U, 0x171700f3dfdbf5feU, 0x17051501ecece50aU, 0x10806f8e4f0f006U,
  0xdbe5f5fef9fdfb08U, 0xfdfbfb070f0df2e3U, 0xe7dde5f80c030d07U, 0x50404fdfc030700U,
  0xf9e5eae1f3fcf8U, 0xf004031305fef408U, 0xfc04fcfff1e1e1edU, 0xe6fbfefffdfb03ffU,
  0x1e0c0603f3f1e7e6U, 0xfdf3e6eae7f4fd0fU, 0xfb0503fc0903fafcU, 0xefe4d5ecfb020704U,
  0xe0e8f8f707fbfef7U, 0xfcfdfafbfd02fdeaU, 0x11080a03fcff0507U, 0xfeeae2e4edf7f1fdU,
  0xf8040902f6f8fa02U, 0x305060406fefdfbU, 0xd090b06090b0effU, 0x8160a0bfa01f605U,
  0xfb08fb0707fa080cU, 0xc040007fefbfb07U, 0x15150e0f0e151211U, 0x1090e0d08191817U,
  0x60003fcfd080406U, 0x108fe090b0400fbU, 0x2ff00fd020d0afcU, 0xfd0601fdfc02fc04U,
  0x5fdfb01fd0303fbU, 0xfd06fa03ff060005U, 0xfa0206fe06fdfbfeU, 0xfefeff0404010405U,
  0x10202fe0002fffaU, 0x307040202fbfdU, 0x1fefb04fa02fcfcU, 0xff06fa01fe04fffeU,
  0xff05ff06fe07fbfdU, 0x103000300030105U, 0x3fcfc01ff05fafcU, 0x70008fb03fbfd01U,
  0x4fffc00fffb0001U, 0xfd000402070202fdU, 0x3fbfe04fb0303fdU, 0x50609060307fd03U,
  0x803060b05050909U, 0x206030102010301U, 0xfa0104fffcfa05fbU, 0x1211121105fae5f1U,
  0xfc04fe0909100917U, 0x102fe00fffe0300U, 0xd3c0cdd8eff2fefbU, 0x120cff0806f4efe6U,
  0x506060107ff0cU, 0xe7f5f80605fcfbfeU, 0xf5eefde8ddd1c4d5U, 0x601fe000907f7e7U,
  0xfaf7fa0200fb0602U, 0xf3e0dce0fa01fdf4U, 0xfdf5fbebea0807U, 0xf5fb000104fbff02U,
  0xf6fe01f8fdf0fafdU, 0x6ff1408eac8d1deU, 0xfb03010500020505U, 0x4f0f801f80100fdU,
  0xe9cfcae4f1fd0207U, 0xfffa03fbf7f90f02U, 0xf7fffdfb01030608U, 0xf3fb02fdfef7f5f8U,
  0xf0f7f4f8e1dfd3e6U, 0xfafb0b0f0bfcfdf5U, 0x203f6f6fef80404U, 0xe9ec06020c060103U,
  0x50307fbf3efecf2U, 0xf9ff0100fdfa0910U, 0x1c14111a0903f9f7U, 0xfcf7f6f8fcf8061eU,
  0xfb0402070b0204fcU, 0xc040bff02ff05feU, 0x1215263028161811U, 0x601fff6f1fafe01U,
  0x3fdfffa06050007U, 0x6070c0c0c0c0302U, 0xecf0f307132a1d1fU, 0xfdfb060800fbfbedU,
  0x90809020afafe05U, 0x241b0e01f0fc0401U, 0x40200f3f6f90609U, 0x401ff0105030502U,
  0xfaff03ff030b1001U, 0xf2ff060b0c0bf4f4U, 0x506fdfdfeff00edU, 0x11130c0c02fd01ffU,
  0xfd080002f4010708U, 0xbfafa00eafcf406U, 0xfc030603fefa010bU, 0x109171104050002U,
  0xf0fcfd050f0afcf4U, 0xfb00040203fefd0bU, 0x120404fc0001fa05U, 0x9fcfffb04080c08U,
  0x606090b04fbfc00U, 0x3ff060504ff00fbU, 0x3ff05fe070a0106U, 0x7020afa06060605U,
  0x601fefd0107150fU, 0xfefffefdfc04fefcU, 0xfdf70503fb0802f4U, 0x40a1010120a0a01U,
  0x10000fc05fe05feU, 0xf0f4fdf5eceff9fdU, 0xb0b0601fcfe04fcU, 0x1fd01fcfe040610U,
  0xedebf4f8fffb0002U, 0xfdf2f2efede8ebecU, 0x3f8f8feff060004U, 0xfffa0301fb00ff05U,
  0xeaede9e8ebeffbfcU, 0xf6ebeaf1f4eff1edU, 0xfb06fd0304fc00fcU, 0xf6fdf8ff0403ff03U,
  0xf5e8ebf8f2faf4f8U, 0x6ff0101f6f4f8ebU, 0x2fffdfbfb01ffffU, 0xfe0300fd00030100U,
  0xfafff900fc0205fdU, 0xfdff020505fdfdU, 0x2fdc021701031d26U, 0xfd261d342f2132f8U,
  0xeedc172639fde53aU, 0x3afe0726f73be2U, 0xcd60c1b273a223dU, 0x2437e4d83ff2d635U,
  0x35fee83a32db28dcU, 0x241bddfc1a1edadaU, 0xf7ee1d0ad6fe0117U, 0xe0eaefda003f1a0bU,
  0x401b10ecfde5fdefU, 0x13532fc17eae631U, 0x231fe10bfa241a3dU, 0x393628050fdb3f0bU,
  0xd61c162a262aec00U, 0x160301f3090216d5U, 0x10ee0a1b05d5ee20U, 0x81c21f917e72c06U,
  0xea072d31ee031134U, 0x27d71237e4e216ecU, 0xf23236f518fe30e4U, 0xe80c3b123724efdeU,
  0xf5dff6faffe4fc14U, 0x42302c5f7223000U, 0xdf131617e6de0a05U, 0x301323e9e7d9f221U,
  0xd33df3c3f3da2a14U, 0x231c040bd409dce9U, 0x1feae1fcebf9e6fdU, 0xf0c2b00e02a1004U,
  0xd9deedf426362021U, 0x38121021daf5f4f0U, 0x22defd032720fb16U, 0x2a15fffc06d2f61eU,
  0xe62be72924e73cc2U, 0x2ce0efecd8e4f820U, 0x1e0424cd0136d516U, 0x723e126faf8d93dU,
  0x1301f735e11822U, 0x152b05fe1f2e11ffU, 0xd7fbd1203b3fd51fU, 0xec331505d5de2626U,
  0x5310bde1308f612U, 0xe004d7001b25f420U, 0x1511e6f70b10161aU, 0x432d9de211fdefcU,
  0xfdad6eff937e714U, 0xe0dbcf1802ebdb0fU, 0xdde5f1e3152a24e4U, 0xdf18122c29162211U,
  0xfbff21023f29c6c8U, 0x3001dbd3ce08d8e7U, 0xdee939212206073aU, 0x3f03d3d0ecfe1212U,
  0x102726e31cda26e6U, 0xf03417e62ee12a18U, 0x24f1f7d80df7091dU, 0x2a1d3ffc23e0e0f5U,
  0x3f3507d812e4f9d9U, 0x181cf20f3b27f803U, 0xfa2afdd22c29e62dU, 0xf90de4f2f0ee2d25U,
  0x1d3f3f180a092628U, 0xc2d6dfd600ea23ebU, 0xdd2cede3021409e9U, 0xe4d513c4d615030dU,
  0x1a3eedf12c10da14U, 0xe19ff01dd31e9f7U, 0x37d7e8c5ede415f9U, 0xdaf8d8e039e80408U,
  0x14e6fe331b0a28fdU, 0xd414ca232dd9e8f5U, 0x2b3cfdf20af439fdU, 0xd51ee12e1f291cdcU,
  0xdc00c2c11437de1eU, 0xea10fd190cf723ddU, 0xd7e90af4073df703U, 0xeed5d4e202fbdf13U,
  0xfc423fd341e29ccU, 0xdb371433f0132214U, 0x2521e42110211739U, 0xc0711c4fd2fdf40U,
  0xe0520fbf1e2da33U, 0x3509203e3a072b16U, 0x1ee9040c28de222bU, 0x17181ef23bf6dad4U,
  0x102ffc16e536e639U, 0x1c03f4e22a342ff6U, 0x1c3ada20f4d7220cU, 0xde12113a1917fbcaU,
  0xff24d825e12fd70cU, 0xd52cdb233feaeb28U, 0x18172df52e23e8d8U, 0x1808f3260cdf3040U,
  0xd5eaf33fe5370adbU, 0x222fddfce4f629f5U, 0x3ef8f2e33222ee07U, 0x222921d5311c1a2bU,
  0x70004fc08020604U, 0x606fc02040303feU, 0x306070703010405U, 0xfd04fd0206fe0001U,
  0xff03fd07ff060507U, 0xfd0207010904fc05U, 0xfd0207ff03ff0001U, 0x5fffe00fc01fcfcU,
  0x2040c0b060a0601U, 0x5020808000a0504U, 0x504fe00ff08fefcU, 0x50100fefffc0406U,
  0x702f9fbfaf80204U, 0xfe03fe0307060502U, 0xf9f7030106fe03ffU, 0x50506fffefdfcf5U,
  0x709fe020f121308U, 0xfd06080306080207U, 0xfcfcf1f9f8f2fdfaU, 0x501f400f4fbfaffU,
  0x7030a0400090505U, 0xf6f0fdfa00ff0503U, 0xdaefed0400f6f800U, 0x1507fbfaf5e0dfd6U,
  0x4070601fe080209U, 0x2080108f8fdfdfeU, 0xf0f3dad1dde2effdU, 0xfc0a0408120900ebU,
  0xeffff00020206ffU, 0xe6ec010a090a0402U, 0x1303f5fff6f2efdcU, 0xfafcfefe02000e15U,
  0x5f7fd0b0c03fb03U, 0xfe0bfdeddfebf6f9U, 0x50803120bfcfdf2U, 0x1102fc00f8000608U,
  0xeefafd090404080fU, 0x9f6f0f4020000e9U, 0x6000704ff0110U, 0x2071405120a03faU,
  0xfef9edefef010610U, 0x4040a050afcf2ecU, 0xd0b05fbfcfd0004U, 0xe7ff131004061810U,
  0x3ff04050205f8dfU, 0x5ff06040200fe0fU, 0xff0816070b000600U, 0xf0cf9d5f200f8f9U,
  0x706fd0405070318U, 0xff0002fd05070705U, 0xf91c0cf2f6fbf900U, 0x305ff04fcfaf5e7U,
  0xff020104020000f9U, 0xe5dcedeef7f4faf8U, 0xe6f9eaf2f7362bfbU, 0xfe0501fc0401fbf0U,
  0xe6eef200fb02fbffU, 0x153f3514dfd7e1ebU, 0xfeede3e4eeecf7feU, 0x5ff02fffd03fbfdU,
  0xf8d3ccdbe5f1f2faU, 0xe802f90612334027U, 0x300f902faf1edebU, 0xeaecf6fdfa01fdfdU,
  0x61e353708eee1e6U, 0xfbf0f2f3ef0c02f8U, 0xfbfcfffffe000602U, 0x1d12f9f7eef3f2fdU,
  0xfbff0bf809223232U, 0x204020300f4f4f8U, 0xf8fbf8f2ffffff04U, 0x1622223d2a1dfefbU,
  0x80900050a0e0e0fU, 0xff0703020505fe07U, 0x281902f6ff02fcf8U, 0xc11220318242125U,
  0xfefd0801ff0e0d09U, 0xf9f4fefdfd0204fdU, 0xe1c191110f7f6f1U, 0x106050d030d1612U,
  0xfd03fd0303fd0104U, 0x2fe00f4e3f2fafaU, 0xa0c0f1b0f1e2120U, 0xfd0004fe0207ff10U,
  0xe2e8f9fa0502fefeU, 0xc14120b00fcf2e0U, 0x701080f14ff0cU, 0x706fe01fc0800U,
  0xfaf0eceaf4f6f600U, 0xfc0202ff03f9f9f6U, 0x7070107fd010502U, 0x3fffefc0705fcfdU,
  0xf8eff7f1fbf7f8faU, 0x403fb00f702f7f6U, 0xfefd0203fc03ff05U, 0x706fe0701000107U,
  0x6fd010702fb0605U, 0x4fcff04000806U, 0x601040801080306U, 0x505030300020300U,
  0x806050809090008U, 0x30800070402ffU, 0x709040309050709U, 0xff080702fe030606U,
  0x90205020802ff03U, 0x206040105000009U, 0xb0a0a0705090e05U, 0xa05000103070807U,
  0x8ff08ff03040507U, 0xd0d140602030007U, 0xfffaff01fe090b07U, 0x902000a07060605U,
  0x80b07ff08060901U, 0xf1f0050d0e12100fU, 0xffff02fef9f5f4eeU, 0x804040308ff07fdU,
  0xfb0a0704ff00ff02U, 0xedebe3e7e9e5f0ffU, 0x4010006fdfa00f8U, 0x404fc0605ff0004U,
  0xe8eae5f2f9fcfe01U, 0xfaf7f2e9e8f1eceaU, 0x2060001080400feU, 0xfe0207fffefbfd02U,
  0xf0fafdece5eceef3U, 0x10102faf8efedf7U, 0xf8f8010405010002U, 0xe6eddfe5030a0704U,
  0xebe6edf2f3f30cf2U, 0xff060302fff7eeU, 0xeef70504fbf702fcU, 0xeaf4ff02fbe5d0d5U,
  0x700f7ede9ebe4ecU, 0xafa02fc00080207U, 0x13eccfc0d9f20209U, 0xeef4f2eee4e80312U,
  0xfd0301ff0401faf3U, 0xcde5ef0308f80101U, 0xeee5f7191a09dbc3U, 0x6fbfbfcfafbfdf3U,
  0xfdf7fe02060901ffU, 0x1210eddedfdbef03U, 0xe0104faf5f8ff17U, 0x30109010a010906U,
  0xebe6e4f5f5fefe03U, 0xc08fc060a101702U, 0x30805171f0b08fdU, 0xf6f8fdfd07010000U,
  0xfe120f181303f4f6U, 0x211a0e0c0d07fd09U, 0x604040109021018U, 0x2819f9f7f5f9fdfdU,
  0x1001eff4fe102b19U, 0x109111419130e0bU, 0xf800fdff02020907U, 0xfe0f190f201706fcU,
  0x1716110f0a02f0efU, 0x5050606000a0818U, 0x171a05f4f3fefbfaU, 0x202f2e6e8000e16U,
  0x40b080a13141107U, 0xf8f2f6fffeff0603U, 0xf801171f0703fcf6U, 0x70303fd001101ecU,
  0xff05ff0208080d0eU, 0x13fbf9f6eef1fbfcU, 0xfb040e01090c191fU, 0xa06010503fbf9f5U,
  0xf0f1f8fe08ff0103U, 0xd180b110c0aedecU, 0xfbf0f2f8ef040602U, 0x8ff08030201fefeU,
  0x207f9f2f0f50607U, 0xeceef6f6fa0a0f08U, 0x70400fc01f7f5ecU, 0xf5ff040000060808U,
  0xe7f0fbf9effdfff2U, 0xfcf5f2f0f3ede3ecU, 0x70607ff0100fbU, 0xfbf9f8f0fa010a05U,
  0xf2e9e5eeeaeafd07U, 0x2040304fbfaf5f7U, 0xfcfe050102ff0006U, 0xe9ebfbfefaf8f9f8U,
  0xfdfafef8f3e9U, 0x506030002060807U, 0xfef9fcfd0403fe06U, 0xfaf3f9f7fefaf902U,
  0x804020508ff0300U, 0xa05020108050101U, 0x5ff010404000604U, 0x807fffdfdff0402U,
  0x102040208030702U, 0x100000605010403U, 0x801060300070704U, 0x8010806ff060201U,
  0xfcfd01fcfbfffdfcU, 0xfdfc02fffbfafdfeU, 0x1fb00fb0001fbfcU, 0xfafafffbfafcfa02U,
  0xfd02fbfffdfefb01U, 0xfd03f900fafe0100U, 0xfefbfefafa0100U, 0xfcfefafb01fdfdf9U,
  0xfbfaff01fafd01fdU, 0xff02fefafaf8fbfcU, 0x203fb02fc0200fdU, 0x1fefafbfbfb02faU,
  0xfefe060a090100f9U, 0x103fffd03faf9U, 0x101fe010101faffU, 0xb0a08fd0204fc01U,
  0x407020901050b08U, 0xff01f9fd02fc01fbU, 0xf6fdf90000fcfc02U, 0x14180f14090707fdU,
  0x2fbf8f2fbfe040aU, 0xf3f600fd04fffdfdU, 0xfefcf7f7f9f4e3eeU, 0xf6080d151b1c0c03U,
  0xfd0001ff01fcf3eeU, 0xff03e8e1fa00fdfaU, 0x252915fcf2edfffaU, 0x1fffbf102090c13U,
  0xf6fcfefefcfffcfaU, 0xf5eaeaf300f6f3f4U, 0xff0a19181b0c0800U, 0xfefdfcfefd00ecefU,
  0xe5f4f4f6ff08fefeU, 0x2cfbdeeaeeeee7e2U, 0xf9ecf30f0f2b37U, 0x1050302fefbfa02U,
  0xf902f2f3eeeffd02U, 0x212c263019f0e4dfU, 0xfefafafdfdfdebfbU, 0xf0ff0e0d0b0b07feU,
  0x7d9c0d5e6fefbf1U, 0xfef9fd0725282923U, 0xa120e0c02fbfb00U, 0xdbf8070104000603U,
  0x23242a17ffd8d4ceU, 0x4f902fb0200f911U, 0xf90909110c15130fU, 0xf9ebd2dbdef6f3eeU,
  0xfcfa010d1a1f280cU, 0x15191b0a00fcfefbU, 0xe7fbfaf604091618U, 0xa14242506f3dfe4U,
  0x2fefc010201fe06U, 0xf1fd0c0f170e190aU, 0x16fdf1e4ebeef1edU, 0xfa0100ff01191122U,
  0x201b1e0101fffc00U, 0xedf5f4e4dded0310U, 0xf8130e1f150e00f6U, 0xfdfcfc00ff0200fcU,
  0xd8e90a1b20190c04U, 0x110c05fcf4f8fbedU, 0xfc01f9f7000d0e09U, 0x1c1008fdf800fd02U,
  0xf903fdefe5ee1020U, 0x30e11080a140c01U, 0xfcf9fcf9fbfcf9f7U, 0xf1ff140f13100a01U,
  0x30a10fff8fafffcU, 0xfafdfff500080b08U, 0xe110906fa0200ffU, 0xfbf7fa000205ff02U,
  0xfcfd0a08100908ffU, 0xfffcff01fd01f8ffU, 0xff06040910140c03U, 0xfe060400fdf9f5f8U,
  0xfffdf5fbf701U, 0x15110a0301fffefbU, 0xf6f4f80a0c0a0a15U, 0xfdf9f3fafefdf9U,
  0xfc00f9fefffcf9f9U, 0x4040d14110401feU, 0xede8f8f601fb0501U, 0x200fefff8faf4f5U,
  0x2fcfe02fefe01fcU, 0xfbfaff0b050d0b00U, 0xf801fdf7f3edf3f7U, 0xfdfc02f9fe02fbffU,
  0x50401050202fdf9U, 0xfdf4f7f4f4f5faf5U, 0x1fbfaf8faff00fdU, 0xfbfbfffa02fbf9fcU,
  0xfafbfefffcfb02fcU, 0x3fc0400fa00f7feU, 0xfc00fefcfeff02fbU, 0xfefd00fcfe0100f9U,
  0x3010100fe000200U, 0x2fa00fdfdfe0301U, 0xfc070506020705U, 0x305fbff08fb07feU,
  0x8fcfcfdfdff0500U, 0xfafe08fffb04U, 0x800fefd02070001U, 0xfd0105fe010703U,
  0xfbfe06fbff050904U, 0x2fdfbfffc0705feU, 0x805fbfbfdfefcffU, 0x40b090a090a05U,
  0xfe060007010203fbU, 0xf7ff04fb04000202U, 0x12180b0501f9f4f0U, 0x204000aff0f1012U,
  0xfefb01fdfbfbfc07U, 0xf09faefeeecf8f4U, 0x408150a140e141dU, 0x203fe0104010002U,
  0xf8ece7e5effdfc01U, 0x162120090bfafef9U, 0x1010c0d0c0e101eU, 0xf2f1f5fdfbfa0501U,
  0x302fcf5efe7e1e7U, 0x7110a161a161a12U, 0x6fdfd0105040aU, 0xfae9e5e9eaf3fb04U,
  0x1a221e221010fcf6U, 0x90617100b0a20U, 0xe5eefdfd02fe0602U, 0x6f8020607f4f0e2U,
  0x100711100300051cU, 0xfffefcfd07011722U, 0x1603f2ebebf4f2fdU, 0xebd5f2f9f2f2fafcU,
  0x2080f1b14010201U, 0xf3ebf103fbfafafcU, 0x70b0716110bfaebU, 0xc06eadfd2e7e9fbU,
  0x3070301fafd0819U, 0x5f5eaf2e9f8f5faU, 0xd1f3001616362107U, 0x2fb090402f8ebddU,
  0xedfafff9f8ff0205U, 0x1e4034070702f4edU, 0xfff6eae7e3e80a0cU, 0x1fa08fc0303fcfaU,
  0x1fbf6f9f6edfbfaU, 0xe7dbe4f6112d2714U, 0xfdfbfefaf4f8eff3U, 0xfbf1f5fa060303fbU,
  0xecff1202fffd00f8U, 0xf3faf4f5eae5eaefU, 0xfa06fa0304fff801U, 0xfdf9faf5f9faf6U,
  0xff11ff00d1e10011U, 0x4f9f6f5fef00201U, 0xf6f0fd00030406fbU, 0xdfcee8f1f9f0e0f6U,
  0xeeedf7f6041402fcU, 0x402fd0205f6fbU, 0xe6e9e5edfafafff9U, 0xd1c190302ded4d3U,
  0x4f9f7faf0e8ee01U, 0xf180c0007010100U, 0x14ead8dde4eaf301U, 0xe8edeaf40d242419U,
  0xfffbfb06fefbfbf2U, 0xeff901170d1c0d0aU, 0x2211d0908e9e2e8U, 0x70304f9f4e6e8f0U,
  0x80f0dfffb03fdfdU, 0xfff1f9f80409131eU, 0xf6edebeaef0015feU, 0xf9f804fbfbfffdfaU,
  0x231b2417100a0705U, 0xebe706f8fff1fe0dU, 0xfffa040100f6eeecU, 0x601f6fd02fb01ffU,
  0x4fd031825231708U, 0x4fdede6e4d3e7f3U, 0xff070204fefe0304U, 0x1b1a060906fcfc05U,
  0xe8dbd7f404081112U, 0x8fffeff0204f9f7U, 0xbfd01060704fafcU, 0x7070a1d0f1d160cU,
  0x8020605fbfaf4f4U, 0x4fdfcfefe0204U, 0x110808050009faf9U, 0x409090f03ff0b08U,
  0xff0506fd05fd08feU, 0x8fffffc0103feffU, 0x20806080f040303U, 0x3fb0004fbfd0dffU,
  0x4fefe05fc02fbU, 0xfefd06fcfffd0602U, 0xfc03030803fb0106U, 0x2fb07fa000303fcU,
  0x1fefcff0002ff00U, 0xfe03040000040200U, 0x10402fffffd05U, 0xfefcff030005fe02U,
  0xfd0002fb02fb0000U, 0xfe02fd04010003faU, 0xff03fe05fffd02fbU, 0xfc02040201fc03ffU,
  0xf9fbf60000fcfffdU, 0xff03faff040400f8U, 0xfc03fc0101fefc02U, 0xfbf5f9fe0001fb01U,
  0xfd00f9f8f8f4edf5U, 0xfdfefffb030000feU, 0x1fffd04ff00ff02U, 0xf4f3f6f1f9f8f3fbU,
  0x305ff030a03f9U, 0x20300fdfefdfb00U, 0x200fbfafef900fdU, 0xfef70700eef9fa04U,
  0xfefa01fd0509fcfaU, 0xfefbfe000000fdfeU, 0xfb0804ff0b020a00U, 0x603050609f90104U,
  0xfefd0405fbfcfdffU, 0x2fdfe08fbfa01fbU, 0xbfb02fff90104ffU, 0x2fd060609fd080bU,
  0x3050202ff04ff01U, 0x80806fff9030406U, 0x20b06060a0d0202U, 0xfd0201fefd010109U,
  0x3fc05090c01ff00U, 0x70a0e0800010502U, 0x303080d07170f0dU, 0x50204fd03ffff01U,
  0xe8e2e4f8f3f90002U, 0xa15070d0603f9f1U, 0xfafffeff03ff090bU, 0xeaf9fe07030b0401U,
  0x40701f5f4dbcfe1U, 0x30404050d0d0b0cU, 0xc0c0803fffafcfcU, 0xf8f4eee5effdf500U,
  0xb0f1617100afaf3U, 0x10002fe0202fe06U, 0x7080b0e100d0801U, 0x1809fef6fe080d0aU,
  0x30103f5f8011020U, 0x13080600fe010100U, 0x151b161c181f211eU, 0xf8fa000b06111a17U,
  0x3fe01fffcfdf7U, 0x2b27281e0b06fe01U, 0xf5fd1314232e272bU, 0xfefcf4f5f800f9fbU,
  0xfff9f9fcfcfefd03U, 0x142a3a40271007feU, 0xf5f8f5eeecfe0810U, 0xfffeff00fdfaU,
  0xf8e2e2dbe9ecf900U, 0xeff0ef030c1b2d14U, 0xfbf9fcf8fbf8eeU, 0xdaf4f7fbff03fd05U,
  0xf2fb01e3e1cec6d0U, 0xf2f6f7f8eeefe7f8U, 0x5fcfc010301fdU, 0xd3dfd6d8ebf701f9U,
  0xfc03fbfcf2e4e4cbU, 0x30104fcf3f5f7f7U, 0xf8fc030003fcfffdU, 0xbfef5eff9f5f5f6U,
  0xfefa00f3f8050105U, 0x502fefe0402feU, 0x3ff000004060905U, 0xf9fcf4fe0e05f9fbU,
  0xfdfdfdfbf9fff9fbU, 0x80d000402fd0503U, 0xf3f7f8fd0202fe02U, 0xfcf9faf8f9fbf8edU,
  0x5040205fefb01fdU, 0x20e070c12050607U, 0xf5f6fdf4f0fa00f9U, 0x2fd05010304fbf9U,
  0xc0c090303fe0300U, 0xf900fe030c0b0f07U, 0xfc000502f6f5fbU, 0x504fe00fe01fdU,
  0x10c090401070205U, 0xfe01fdfcff040107U, 0x2fc00fefe040201U, 0x6fd0000fe04ffU,
  0x605020401040403U, 0xfffcfdfffd000202U, 0xfb00fc02fc050303U, 0xfefd03020000fb03U,
  0xfe0202fcfdfc0400U, 0x5fcfe050403ff02U, 0xf207fd1d3adf21e6U, 0xf802ea2d3e1d3c01U,
  0x23161e2c0afc0ef2U, 0x3a25fd0d150df8e6U, 0x22e403de401e393eU, 0x3f0ec40e635f6dcU,
  0x21f10df33c40282cU, 0xeb3a323ae6eae527U, 0x161b0d2af7e60fd8U, 0x3800380929f83719U,
  0x25052f0116ec09f6U, 0x182c143d2f022afeU, 0x30e2e1ee03d1611U, 0xffe5e80a061035eaU,
  0x3e1d0c3b22fc20U, 0xeee17e940f0e3feU, 0x312afcfc082830e0U, 0x1c3d242aea251421U,
  0x38e415352afd05efU, 0x2c05fad9ef2ae922U, 0x2d26ec0ce509dfd3U, 0xe6190d3ed83b213aU,
  0xe1f0070c18fc3726U, 0xde17e1df28101aebU, 0x27e140091c14e803U, 0x1812da240e02f73aU,
  0xe1211df3604e3f7U, 0xbe6d9ef15eadbd8U, 0x4103a37e81ee411U, 0x1bda04e303e63312U,
  0x351d2626140504f1U, 0xdce525f1013ff7efU, 0xf4ea2113db3121eeU, 0xffd1dc1e3a3ed9e9U,
  0xddff052221e2dbc4U, 0xeb2aff210cf8163fU, 0x33df2fd81628d913U, 0x20f61fca1ec7172eU,
  0xf72ef6211cef2ae2U, 0x1bece82d212ef42eU, 0xf407de10230333d1U, 0x28361f383920df22U,
  0x34ee040ad8f2df23U, 0x1604261f0a1a05f4U, 0x8dffce53ae100feU, 0x2108070d101a3ddeU,
  0xe328253b0d2f2539U, 0x10f426ddfa271400U, 0x3417e9eb09341e3cU, 0x1f100f381c1ee70bU,
  0x23de10e7f909c902U, 0x35e3f5f2dade0aebU, 0xf4ea022a06032c2fU, 0xedd61b1cffee1129U,
  0x302114142406ed29U, 0x19db391cde190219U, 0x18321b1e2724e9e3U, 0x80e2ecfe1cfcc2aU,
  0x2900e4ed3430d503U, 0xf30edd3d11fa3d03U, 0x7e10426e12cf731U, 0xfd1e07211437ee3dU,
  0x13ec0a06e1052905U, 0x20e61216fcf1f329U, 0xee0f2c29dddb1035U, 0xf3e81f2309e903deU,
  0x363cecefea0aee1bU, 0x160c1edbe819e2eaU, 0xee26021e191bf1fdU, 0x100a2f193ff804ecU,
  0xe2beae0f22ef9e4U, 0x123510ebe5362d00U, 0x35011d0edeeae8e6U, 0xf02d3bfdf13c0ce5U,
  0xf62516111f3cd9f8U, 0xf63ce8f5f006fee6U, 0xefdaf606e2eee9e6U, 0x123aede816361aebU,
  0xdadde7e3df23ee16U, 0xe7e428f8040bf21dU, 0xe2e41621dcf236ffU, 0xcedbe03625151709U,
  0x1a1912fe1d09d6d3U, 0xe0de0cf0ecf117ffU, 0x390b0cfce836ee04U, 0x12e3e718ec360decU,
  0x3df1eede1e06fc26U, 0x3a03f7f3ff052f21U, 0xe60e3ceaf0f80f27U, 0xf92afd1837e902dcU,
  0x3efaf0f02a3d0534U, 0x1ce926e120ed3a05U, 0x2adb27e33a163e13U, 0x2efae1193fdadcf6U,
  0x2609db0438f33f0eU, 0x2b02ef21ee072706U, 0xde023ee6f62f0e07U, 0xf01e3be0ed2afa34U,
  0xf7fbfa0304faff02U, 0x3fb04f9fa04faf6U, 0xfafffaf903fbfafbU, 0xff00fcf7f60101feU,
  0xf901fef803fffefbU, 0xf5f6fdfefbfa01ffU, 0xfffc00fafdfefefeU, 0xfefff7f901f6f7feU,
  0xfffbf602f5f801ffU, 0x2f5050304fb0301U, 0x4fefa01050104faU, 0xf4fa0403f9fb02f6U,
  0xf6fdffff04f8fef7U, 0xf601000200f40104U, 0xfdfa05f905fafefeU, 0x1efe9f3f9fafc03U,
  0xfafafbf90bfe08f7U, 0x2fe03fe03fbf801U, 0xf6fdf7f1ff0507fdU, 0x3010101efecedf4U,
  0x2fc010a010703fbU, 0xf030a07020401f8U, 0x262620172721130bU, 0x1080b04020a1815U,
  0x104f7fbfa020208U, 0x2e3732240e1102fdU, 0x14121a273138232fU, 0xfe0402050103fa18U,
  0x12070505fc02f9f6U, 0x16192f352b403a1eU, 0xfb0404ff000c030eU, 0x70102fdf6f60806U,
  0x1f20323b2913f9ffU, 0xecf1e6e3f0ff0504U, 0x5000609011204edU, 0x1715090a0701f7f7U,
  0xe2f001ecf002051dU, 0xf50203f2e6e5e3e0U, 0xff02fe02fb08f8U, 0xd5d6e2fd02151109U,
  0xe9ebeeeef80609eeU, 0x1fbf8fef2f4edfcU, 0xfe050701f90201U, 0x91b1000e4f2e2e3U,
  0xe7ecf0fff5f902fcU, 0xf701f8ff0102f3f6U, 0xf3f3f1f3f9f0f401U, 0xf4f804fe021c2306U,
  0xfef6f1ebf1eef906U, 0xf8f4eafa02fd00fcU, 0xe1314f5e10407ffU, 0xeeee06f4f0f3fd01U,
  0xfdfcf6fcf8fefff7U, 0xfc16170bf8f0e7f4U, 0xf8f804000c211509U, 0x2fcfaf3f6051501U,
  0xfcf6e8f804fbfbf8U, 0xf8080c0600fe0ffdU, 0x610170b0a180cf6U, 0xf905fc03fbfaf5fdU,
  0xe4e2dfedecf0f1f8U, 0x1f1211040bfafdedU, 0xf5f5f2ff00131720U, 0xe2f2f7040a0200f6U,
  0xfbf1d8cac9cbd3dcU, 0x412262b27040f06U, 0xfcfafcf7fcfc01feU, 0xced8dcece802060bU,
  0x17150cfefaeae0d4U, 0xfcf9070a0e111528U, 0xf807150c0afcf9feU, 0xf7eff2d0e0eefbfaU,
  0xd111f28271c08fbU, 0x9fd0405fff8fa07U, 0xf0f5f6000e07110cU, 0x271e09fdf5ecf3e3U,
  0xfefb05030f0d112bU, 0x7120f0a0005f903U, 0xfce5e3eff400fe06U, 0x40cff19091a110fU,
  0x7fb0300fe00fcfaU, 0xfd02ff01040e150bU, 0xfe010b09f8fdf2f0U, 0x2fcf9fd0b000302U,
  0x1312090500f5fcf8U, 0x6040d0d14110a04U, 0x8f70505f203120bU, 0xf9f9fb04fbf602f9U,
  0x1b0d0d0f040bfcffU, 0xc14161b0611211dU, 0xf6f5fb0100fdfd0bU, 0x3020300faf8ff02U,
  0xf07100901fdfafbU, 0xf9f908000c080401U, 0xf503f905f8fa01f6U, 0xf8f9fff604f8fefeU,
  0xfdf6fd05050102f9U, 0x50004f802fafbf7U, 0x133a18f113ee14e9U, 0x39f3d633f0de3929U,
  0xe821ea21e6f42316U, 0xe015f8ee1110e5f3U, 0x13dd2f303ef71b1cU, 0xe9dd23f7d9130d20U,
  0x6e8e6072b3311deU, 0x162b04000e242efeU, 0xebf7d6ecd924211fU, 0xdecf52a27fcf732U,
  0xd838ff3e3f12e519U, 0x2d8fc0a161cecd6U, 0x221326e3fef52212U, 0xfb08330225fb3811U,
  0xe5e2d9030009010dU, 0x6343b3711d5121bU, 0xf3a2e0210db0bfbU, 0xf737f008e1ed163dU,
  0x15f41d0b2e3a0e1aU, 0xff2b1316dc201aeaU, 0xdc3b2729172b3712U, 0x320112fcfa0e22e2U,
  0xf1fd1b161c0cd9f2U, 0xdb143607013228d7U, 0x2cfddf38022e21U, 0x3bdefeeef23403f9U,
  0xe920e4d8e7d8f93aU, 0x3521d93e3af3042dU, 0x2b180c0cd9d52905U, 0x36dbe3282cf4df25U,
  0x1efe12f0e0ddeaedU, 0xa111d0501d6003bU, 0xd606fce03e1df2ebU, 0xc60625fcc416fb31U,
  0x2afd33f7d50a120eU, 0x3a141716e2f11015U, 0xc90f0424d7220d24U, 0xe9e1e9e5dbc1f9f0U,
  0x110b1c0310180423U, 0xf013dfeae4251532U, 0x35232a16e1041c26U, 0x10535e5e604dbf4U,
  0x51a3ef3fb183922U, 0x71dec0536f30ae7U, 0xf6390e2433f526f0U, 0xf52714f2dc270ae1U,
  0xdb1d3b070ffe08e1U, 0xf4cd09e5d6cff2f1U, 0xbd8ebfbfe351d2bU, 0xdeef00fa15f54000U,
  0xde08daf3231ae92bU, 0xa12211be811db06U, 0x31d705ebed2c1329U, 0x832f622dbf4ed37U,
  0xfb0622e3f10fd007U, 0xfcf80f0308ef2831U, 0x3500f316f4041b12U, 0xeff7ee07ded926fcU,
  0x2df929e30804eb34U, 0xe0332c01213c193bU, 0xede80d35e23ce3U, 0x1422401ce208cacaU,
  0xf901d72915fb17faU, 0xd60a08fdf935d7dcU, 0x1e2be3281225ef1eU, 0x21e4f01e33d615e5U,
  0x211e11ed2e00261aU, 0x13329253cf5fcfeU, 0xf41f0b19eae209dcU, 0xeeea0b3609e72cd5U,
  0x3b3829341fdde9f7U, 0xedfc0c0713f8253cU, 0xf6f329ebfbe5e9e5U, 0xe93c3c213ce2ea11U,
  0xf8ddf411d7383a13U, 0x31ea0dddd6d2f1f2U, 0x210bf6f7e8e3f9f2U, 0x1218e40e38203825U,
  0xcea2cf11bd5080aU, 0x283fef3ce7283003U, 0xe32531321f2a15dfU, 0xec390622dc2e06e2U,
  0xe936140b0af71a08U, 0x273ff21cecd5e2e2U, 0x60ce0212910ea20U, 0xddfc1aeb16400919U,
  0x1d380214dbdbdaffU, 0xe21ad540e93c343fU, 0xda04da0c140d0c21U, 0xf338f5193f2728ffU,
  0x70d2b2a30200ce9U, 0xdf114fef023280aU, 0xf6e52fff09e42c3bU, 0x1a2605da1ad6f9e7U,
  0xeb3add3afbd9d803U, 0x1fe91406fffa33e0U, 0x3b2bfd1001faf6f7U, 0x1c01f936f92a01e1U,
  0xd1a11ea0d2d0cf7U, 0x28192fde1326fa08U, 0x24012406f80c1d39U, 0x206343221e2d624U,
  0x37dbd31704362219U, 0x2ce031f908e9d92eU, 0x1f34df2e38e7ecf9U, 0x30eae8f8f8f5daf1U,
  0x3b09380726172fedU, 0xf128df3a361ced2dU, 0xe12be909d7d4e82fU, 0xe1f23ada10e31918U,
  0x2a1e250011e9162bU, 0xe9ea3638051b0631U, 0x6deee02f636e822U, 0x40aec0e1d2df7d8U,
  0x31fbdc17fae9241eU, 0xeb2d340ee30e2914U, 0xfd71ef426f4e4dbU, 0xd308e2e2311538e4U,
  0xffefdd13ec23db3bU, 0x17f4022428e539e4U, 0x32d52a37e905212aU, 0xf9e206db0bf80211U,
  0xec0a1ce9d2f8f512U, 0xfbe0df39f7331fe2U, 0xe20ce70e0612fa2cU, 0xdb240cf52f302239U,
  0x37282f351518dde7U, 0x19decde7f62cf92cU, 0xd8def7f7f0ee1b15U, 0x10fe0a11fdf51932U,
  0x2ae5fc0a0d28082bU, 0x122115e920fcfe18U, 0xe327f1f803e31cdaU, 0xdbda1af30d38fd1aU,
  0xeaeb22f110de0a05U, 0x1d2a1a051ce5e51fU, 0xfd3a25f3dcd5ecfdU, 0xd7eefb2ff701d3d7U,
  0xf3eb27e5cad62018U, 0xe7151cf9f6fde701U, 0x11dcf4e61ff6f7e2U, 0x17002e07e7320b15U,
  0xed3de6fde61def06U, 0x3a27e1dd2a1bec2aU, 0x3200cda292dee05U, 0xf190cd3c5c02117U,
  0xe01d2024da2b0b0aU, 0xdb20e307fcd509ddU, 0x51b0cf3f30dfbd5U, 0xdde818eecbda01e2U,
  0xd80edc0f3221fef7U, 0x2908f8d7fa2f361cU, 0xe1d42a34fc1c13e8U, 0x1bf0d63614fa0e03U,
  0x143ddb0629241efeU, 0x2edef10be0073937U, 0x2106fe0d2d2de834U, 0x14def3e122eb2a31U,
  0xef029f6f6313028U, 0xf81835111313f8f0U, 0x12a2bf5dafcf3d5U, 0xda2bda23ee2918f0U,
  0xcf0919282cfd11e3U, 0xf5e0d3e5f61b1dddU, 0xaf40b39012f0125U, 0x311007093b0ef115U,
  0x27fd1325df10043bU, 0xe2d930e8e0f70fe2U, 0x15f0e2e62dd5e331U, 0x220dd101010500eeU,
  0xeeedf33b37d51c25U, 0xe8d2e2043938f72fU, 0x170b220eee1a2d24U, 0xfe2f26d72bf014e2U,
  0xff32ef07e90c2328U, 0x6f2dbfde410ee2bU, 0xefd100d417f301dcU, 0xd40136ebe4d503d0U,
  0xf0f2d21febec05daU, 0x281aef38ff1ef61cU, 0x2f31d92f380d3b20U, 0xfa30dc11273031dcU,
  0xe3330ce22aec1ffbU, 0xea1dd7f32cd227f8U, 0xd4eae4341231d8d1U, 0xf5360f1a0c28fe0dU,
  0xb0d18fb1d34fce8U, 0x2530d91628d8fc24U, 0xff07350f2d35f41bU, 0x8e9d838101d1be0U,
  0xef232ad9f9ed2620U, 0xe5dc09dae80b1de8U, 0x1c0bff2324240ee9U, 0x242dec1e0df917faU,
  0x1eda352cee2632d5U, 0x23072fd72810dbd2U, 0x27383cdc01033e12U, 0x11db1ce6d8e7191dU,
  0xfe18fe2ef516d8deU, 0xfc2debe23200e1dbU, 0xf2fe0ae2e4eedd21U, 0xe8091a2c22efe7f5U,
  0x2ef122e92ada39e6U, 0xd7f1f6fb21f20bf7U, 0xfdf3353820d71a08U, 0x1619f4e2e51d37f4U,
  0x3d262b303b1714e5U, 0x1d1fec0f1adcfb16U, 0x22dbd6f820f6d712U, 0xe9e5001feb1503dcU,
  0xfd6ee361d15f50dU, 0xf534d805df3afbe7U, 0x18e3fe37d61b1a29U, 0x15f3f637f237f437U,
  0x29f800fe1cdc150cU, 0xf73029293d25e614U, 0xdb09f41dfc381317U, 0x20f138071104241eU,
  0xf90d373b071e3816U, 0xed2ff1e739271c0fU, 0xe3f5dbf22c022128U, 0xe3070528f80b213cU,
  0x620331807e4ff1bU, 0x12362cf933130e24U, 0xc1a3401e9e2e8f2U, 0xfc0e240a20380adbU,
  0xdee31bf9ecd3eadaU, 0x11ffe523f02e110cU, 0x12cf061f2800e7daU, 0xdc0329ec191a0f16U,
  0x81ae3eae4091f0aU, 0x2b283cf7f91131e1U, 0xdbf1cbddd124f93cU, 0x1ff431e9d531ffdaU,
  0xa162034f9edff07U, 0xc021d325f9f403e4U, 0xd5eb062f201f07e6U, 0x1f2a2a0a4029d218U,
  0xe50701e6e3122023U, 0xdb3a17f821cfdaf6U, 0xf8e32133d9d802f0U, 0xf5072ad9021df8e5U,
  0xe61bd7ef28de3be8U, 0xf6ea0119d8fbecedU, 0xf4f120f5e720e63bU, 0xfd2c370ff2f7e608U,
  0xe120c516f1e4e301U, 0x315eb093a23e2dcU, 0xf7f91b192a020dfaU, 0xd829f6d2f0fe252cU,
  0xdc2af62df6ce14fbU, 0xf1d82f3ae9fd02e4U, 0x5e2271a202e0030U, 0xe1ec100d2addda1fU,
  0x2c20332228e9eeceU, 0xc332b3214e8e431U, 0x2a16fe0b363fdfe6U, 0x37fe3807f300e7e3U,
  0xf719e0e825392b36U, 0xfd0621120fe1d8e8U, 0xeef5211ee6fd2717U, 0xe4f9f5d61e120904U,
  0xf3e8250ade06d8f1U, 0xdb1fdfee1af8db3eU, 0xde273d0622222818U, 0xf907161d1cf732f8U,
  0x1a012b38ea34d711U, 0xe800d7f6e6380ee5U, 0xf9fae92fee21ed0eU, 0x36e0effdfe302f0aU,
  0xf2350fdc3037fc00U, 0x2d0809fcf1dc17daU, 0xded8f12d2c01f8e4U, 0xe1112a340d24df21U,
  0xe038cf181124db3eU, 0x20ea01132dd9290cU, 0xe0eee21416e818f4U, 0x1713e8fc2102ffe9U,
  0xf2f9edd7011d0afaU, 0xfaf13afb3706fd11U, 0x31626210f1efaf9U, 0x1f31e9c5d1050224U,
  0xf23c2309e627e2f2U, 0xdc0ed630ed26f9fbU, 0x393eda0938ddec2bU, 0x60f17d622e00117U,
  0x3cfe22edd9ee282cU, 0x1137ef0a333934ebU, 0x39383a3930e31709U, 0xf9db380f38e91229U,
  0x12323edcd503d6ffU, 0x63019ede5f6e11dU, 0x3117f6dd301bee0cU, 0xe9f11e2d0706df32U,
  0x37f2241fe8d7210cU, 0xfd0c040319283b04U, 0xe03e002f38ec2c3dU, 0xeb36d706eff326f9U,
  0xecf91bd422e80decU, 0x260435d5f731effcU, 0x250b1413ed1a1719U, 0x3f01213be4281521U,
  0x3df0140cf10427e7U, 0xfed29093e39f717U, 0xede7d73e3c13393fU, 0xdf05e0dbee103d15U,
  0x23131b27fee740feU, 0xd328e6f116f6f2ecU, 0x312a34e21dfb0821U, 0x31dfcafd10eff2dfU,
  0x122df1f838ebd516U, 0x1135ef321e211111U, 0xb0612361e2a3229U, 0x2ec08dfc1e711d1U,
  0x3f2a25dd02132aefU, 0x3dec05241704e031U, 0x2a11f208f73e3d06U, 0x13d70d0e01ce0806U,
  0xdf2e13fd091936deU, 0xe2321af7fce6fbf3U, 0x13e9100502d3f308U, 0xe81e30d9223d3411U,
  0xe93525f80a29d926U, 0xdaf2f61be6dd363bU, 0xfd10131ae802c115U, 0xebfcd63423312cfeU,
  0xd6cf373e0f14dae1U, 0xfb011bcdd611ee18U, 0x1412220315301fdfU, 0xf320da32fe303e3eU,
  0x27edf43b09e5eeeaU, 0x19d824dced03061fU, 0xf9d3f7212b171e34U, 0x40181deb3bd81940U,
  0xf91b1fc8f9f3efe5U, 0xeb1b04043b08edf7U, 0x1c15d4fa1ce1e614U, 0xe8f5d5d0d9d7e81fU,
  0xdd308020f21d328U, 0x40393ef6d6d7ece8U, 0x7f9f7ec3c1c0b3eU, 0x350a05ddfcd118e9U,
  0xe5392c2d07151d00U, 0xe02817e9e3e1f5deU, 0x2405ff182d1ad3f1U, 0x34efe7fd22df2be3U,
  0x91329d60f0301d7U, 0xdf3b0108de290b30U, 0xeded261f14c90d2cU, 0x211fe125112a1beaU,
  0xfa22e101f0012a00U, 0xeb143be10e131e3bU, 0x38f6e11f3e0a1d15U, 0x32e8e8e02f0be4d3U,
  0xc5f6def0041bee3bU, 0x1adc0f3be7f20b22U, 0xfae012ff3903db09U, 0xa0a14e6db36d3eaU,
  0x3cd5e83430dbebf8U, 0xe260b2ee2d0eed4U, 0x10da0ed706ea3327U, 0x3aeef5f1def3d3e0U,
  0x112a10d31ad33b04U, 0x27323731e7142922U, 0xd9f920f440f5f50fU, 0xd8efdf2c12e61ef0U,
  0x2427df3ce225ed12U, 0x37073b2208270102U, 0x60924100cec1d2bU, 0x421e2fb1600c5d9U,
  0xef3a1310f5eb1717U, 0xf402f8f6d81a25f2U, 0xe336f516240bdd04U, 0xeed810f238fe16ddU,
  0xeff607eae5f9ec1cU, 0xdf2ef03fe3e3fd30U, 0xfffb29dcddf60634U, 0x370e39d4ee07331eU,
  0x18092e10e8f6e0e0U, 0xed2bf309e71d182bU, 0xe8131b0833e8d803U, 0xeea1c010c03f03bU,
  0x1803053def2c02f9U, 0xd100d3316f9ee15U, 0x30fc2c3dfe20091bU, 0xd929060d2e0611e8U,
  0xeb00ec2af4d6e6f4U, 0x261e1cf1fbe5ed2cU, 0x332cd410fc3bec1bU, 0x101e9f038f0160eU,
  0xf5fee8ff012de4eeU, 0x135183dfe11ffe9U, 0xfd0afc02000303fcU, 0x10a0aff060100fcU,
  0x209000108fc0105U, 0x106070507fd0605U, 0x8fe06050afefd03U, 0xff020804fe07fe03U,
  0x3ff0afcffff02feU, 0x50100fd09ff0109U, 0x3fefc05070c0801U, 0x1fbf9fdf8fa03fcU,
  0x20006fd070408fcU, 0x130808080100fd0aU, 0xfef70001f8f9f707U, 0xfe020701f8fffdf6U,
  0xfe0400fc0602fe09U, 0xf2f7f60816130d03U, 0xfffffc03fefb06fbU, 0x903020604020505U,
  0xf9050b0a06fcfc0aU, 0x417120afff8eaefU, 0x40800fffffe0808U, 0xfefc030204060807U,
  0x2f7e7e0dee9f0f8U, 0xf3fff9f7030b0f15U, 0xff020103fdfffdfbU, 0xf3e2edf6f1f1f5fcU,
  0xfbfe0904f1ffecdaU, 0x40308fcee030d02U, 0xeaf5f9f6fa0a0203U, 0x6f9f1e5efffebe3U,
  0xe4f9fc0810f9fe09U, 0xfbfd04fe00fefeecU, 0xf1f9ebe8ebe4eef8U, 0xfefbe2f6fd1004e6U,
  0x304f6e6d8e80204U, 0x2f0f6f20609fc00U, 0xf5fef8f5eaeff1f8U, 0xd4dbeef5fd04f9e3U,
  0xfb02010706f5eaU, 0xe2e0eefdfdf6f0f3U, 0x9f0f0e1cedcf1f2U, 0x302f4e3d8e2effdU,
  0xfdf4e8f3f90807ffU, 0xc0e50406f5eeeb02U, 0xe3e9edeff4e2e2e2U, 0x6fd06020806faf6U,
  0x10f7fa00fbf7f9f7U, 0xe2ebe6e3e3e10d27U, 0xff0c10fcf6edf0ddU, 0x404020c01fb0403U,
  0xf8edff1f22150f0aU, 0xb09f0ece5ecf808U, 0x909fd0afc100c14U, 0x241a190802051411U,
  0xf9f51c1713f9101aU, 0x20e141b1306fbf6U, 0x1e18101709020900U, 0x2b090a171b18261aU,
  0x1c1e25151c1f3e3cU, 0x3fdff08090d1d1cU, 0x2428252b23261d15U, 0x1b2e2b382b0f0407U,
  0x1101710151f2d1cU, 0x231e1516050a03ffU, 0x2d1f06f9030f2425U, 0x2a211e182a281a2eU,
  0x501fdfc060a0f18U, 0xf9ff06181507131aU, 0x1b211021190beff7U, 0x10a0c17311f1c18U,
  0x7f108160f0a0508U, 0xe4d6cadbf5f0050eU, 0x151a18140d1908f1U, 0x505ff08fc000f11U,
  0xefeef8f8f2f8040eU, 0xf8f8eeead3d8d6e5U, 0x10509091016120bU, 0xf4fd010f0e000509U,
  0xe6d8e6f7faefe7ecU, 0xa040b03f9e0dce6U, 0x6fffc06fefd0605U, 0xf6f6efeef8f1f807U,
  0xe9dcdad9dbe7e3eeU, 0x604fcfe01faf7eeU, 0xf3f10100070509ffU, 0xdae4e1e7eaece9f1U,
  0xfd01fffff5f3eae2U, 0xfd08fd06fc060008U, 0xfbf0f9f9fdfefcfbU, 0xf6faf7faf7f7f4f9U,
  0x8fc0703000807feU, 0x1fefcfefffffc01U, 0x6fffa0104f701fbU, 0xfe080300faf8fffaU,
  0x205ff090607fc04U, 0x5050408080aff09U, 0xfefffc08fdfb0404U, 0x306020200fffcfeU,
  0xf901faf9fbff04feU, 0xfdfbfa0400f7fefdU, 0xfa03fdf9f7f9f6fdU, 0xf701fb01fb02f6f8U,
  0xfa00fbf9fc04fdfbU, 0xfc0002fafcfafffbU, 0x204ff03fcf8f602U, 0x30300faf802fef7U,
  0xf6fbf5f800fbf7fdU, 0xf6f8f6fbfefaf8faU, 0xf7fdff0201fb01feU, 0xfb04f7fd02fb00fbU,
  0xeff900f80702fcfcU, 0xfef7faf7f6fbfaU, 0x50601fdf8fc00fcU, 0xa0f071010fffb05U,
  0xfdfef6fefe0d0c05U, 0xfffbff0401fff7f9U, 0x1a0502fcfffe0304U, 0x70f1f10060a0d11U,
  0xfb0205fff606080aU, 0x1020103fdfefb01U, 0xc0410151a12130fU, 0x6160e0a0c0f1404U,
  0x2fa000304fa0805U, 0x172020260c110508U, 0xa0b0d03feeef208U, 0x100020818130a05U,
  0x160b03070604fffaU, 0xeff1e2eefc17201cU, 0x1f190b1019130b0bU, 0x4fbfef9f907051bU,
  0xe7f7061813070905U, 0xb02fd03e7dddedfU, 0xfc040316171f130fU, 0x403080a06faf9ffU,
  0xe4f6f5f6f7ebf806U, 0x11160c00fae9f8f4U, 0x3fe0003020607U, 0x12eeebeff4fff605U,
  0xf6edf6f7fd181818U, 0xf9fc02fdf6f7fcfaU, 0xfdf4fb02f7f90400U, 0xc202f352913f5f5U,
  0xeef2fafafaf1f2f8U, 0xf903fcf603faf8faU, 0x34140c03fbf0f4faU, 0x7fef6fcf619292dU,
  0xff00fbf3edf7fbfcU, 0xfbf2f0f7f6f8f603U, 0xfb0e130e121004feU, 0xfffc0b010804f9f6U,
  0xfff9fe04f804fc02U, 0xecf0eaeceffaeef7U, 0x190ffbf7f3f0fa01U, 0x2f60300151511U,
  0xecf1fdfd0404fe00U, 0xf4ecebe2cfd3d6daU, 0xb181b131f2915f6U, 0x3faf7fbfdfdf4fbU,
  0xc3c2d1e0e4fd0006U, 0x1b141207f3dbdbc0U, 0xf6fafc020f19111aU, 0xfe0f0c0802fcfdfeU,
  0xeef3edcee2e4efe8U, 0x40a15111e020802U, 0x9f903fdfafc0007U, 0x1810000a0e101c14U,
  0x8fe01e5edf90c01U, 0xfff7ff06060c0b0fU, 0x61e1e0e00f90202U, 0xeff70ffe07ff0e0dU,
  0x8100907fbfa02ebU, 0x8fbf80304fcfaffU, 0xfef7eb020f100c08U, 0xf6ebfff8eff5f9f7U,
  0xf7f9fdfcfe0f05U, 0x6010109fa02fb02U, 0x5fcf3e9f9f3fa03U, 0xfb01fcfe01f70c07U,
  0x8fcfffbf9f7fdfdU, 0xe10130f0b030506U, 0xf6f9f6fe060f1813U, 0x304fcf901fe0201U,
  0xe04040802ff00f9U, 0xc1014110d0d120fU, 0x1fbfff6fefc0009U, 0xfdfe02f8f9f8fff9U,
  0xa0403040200fbf9U, 0xfe04fc0c0709170eU, 0xfe00fef7f9f903faU, 0xf7fdfd03f8fcfc00U,
  0xfc01f4fff4f6f5f8U, 0xf90104fdfbf5fb02U, 0xf8f6fe0001fb0300U, 0x2ff01ff0100f6fdU,
  0x4fefd010201fef7U, 0xf9fefef7fdfd02f9U, 0x10301fcff000000U, 0x203fdfb03fb0100U,
  0xfcfefdfefe03ff02U, 0xfe0303fb030301fdU, 0x301fefcfefcfefcU, 0x30104000002fb01U,
  0xfc00fd01fb030204U, 0xfffdfcfbfdfbfffcU, 0xfd02ff01fc02fefdU, 0x3fcfdfc0205fe00U,
  0x1010002fd03ff02U, 0x8000205fe000302U, 0x40003060509050dU, 0x102fd04fd04050bU,
  0x40402ff04fe04fcU, 0xd01090b0d070b08U, 0x3020a05090afd06U, 0xfe00fe00fdfd0104U,
  0x403010c0a080900U, 0x50dfffdff040703U, 0xfbfc010404020a08U, 0x50a0401ff01fbfbU,
  0x904f8fcfd0103fdU, 0xb040e0e09150f0bU, 0xfefe030101030707U, 0x5fcf5fffafbfd04U,
  0xd0a0c0f0f0ff906U, 0xfffe040c0505080eU, 0xf9f7f9fdfffe03fdU, 0xff00f9ff00fdf6fbU,
  0x5060d040102fbfaU, 0xfe0002fffc020807U, 0xfbf3f5f8f7fafdffU, 0xf3f1f5f6fcfff4fbU,
  0xfdfc0209fffe05f7U, 0xf903fcfc0203fe02U, 0x309080001fbfcfeU, 0xf5f7fcfdf0f2fa06U,
  0x2fc02fefe0101ffU, 0xf09000103fc0402U, 0xff091006171c140cU, 0xfcff00f3f0eff2f7U,
  0x8060904020400feU, 0x1c15110d0e0ef803U, 0xeff5f8020d11040fU, 0x6fbfd0302ff02f3U,
  0xfdf2f0fdfe050500U, 0xd090712110a09ffU, 0x10302f5eff80c10U, 0xfbfcfc0403fbfe02U,
  0x100f5f1e5dcd9e5U, 0xf7fe0f180e03fe03U, 0xfdfe000103fefef7U, 0xcec0c1daf4fdfe02U,
  0x907fdf4f3ebe3daU, 0x401010102070f1cU, 0xf7050a1001fcfc03U, 0xf3e5dad0cccacce7U,
  0x502fe0f1110fff5U, 0xbff010201fffe00U, 0xe0e3f9090a120a0eU, 0x15110bfdf2ebded6U,
  0x202fbfe01fbfe04U, 0x1a23170e06fefdffU, 0xa06fbf701101922U, 0xfc0203fc09060902U,
  0x9fdfefbfc000102U, 0x28292f32261a1507U, 0x107fafd0309101fU, 0xfefffc04fef7f5f7U,
  0xc0f080400030302U, 0xfc0a10171b252920U, 0xfdfaf1f5f6f401feU, 0xfbfafe04fc030300U,
  0xd07fdfd01f8f6faU, 0xfdf9fa05fcfd0911U, 0x1fd0200fefbf7fbU, 0xe5e6ecfafb01fffeU,
  0x151309fcf1eee7e8U, 0xfcfcfc0106fc0b10U, 0xff0400fbfefefafcU, 0xf9f5e7e6f0f2fa00U,
  0x80a090b0d07faf7U, 0x3ff0001fefbfdU, 0xfffefe010300fffcU, 0xc0806fbfcf9fffcU,
  0xfcfbfcfdfefe0f0eU, 0x4fd00ff03fcfcfeU, 0xb050508040100fdU, 0x603080903060d0dU,
  0xfe0203feff02feffU, 0xfefbfd030200fbU, 0x1fe020705060304U, 0xfd01fe01ff040002U,
  0x2fcfd02fefefeU, 0x3fefc010001fd02U, 0xff00fdfe00000101U, 0x4fc0200fffffefeU,
  0x100fbfdfdfdfa01U, 0xfd04030103fdfafeU, 0xf90401fefd02fdffU, 0x102fc0403fc0102U,
  0xfb0002fafefb00fcU, 0x304fa02fcfc02fcU, 0x3fe0505fefb0003U, 0x403fdfdfa02fa00U,
  0xfe000203f9fa01fcU, 0x2fafcf9ff000100U, 0xfffcfb03ff02fbffU, 0x203fefefefc0403U,
  0xf5fdfbfcf701fbfeU, 0xfdf9f9fff7fafef8U, 0x302fefdfcfc04fbU, 0xfaf3f4fdfe040003U,
  0xfdfbf7f3f6fcf9U, 0xfdfbfe01fd0004fbU, 0xf70005030006fe00U, 0xedf2f3eee6eef2f1U,
  0xfffa03ff00fefef6U, 0x50806fe04fcfdfcU, 0xf5f3eef2ff081315U, 0x1ff0a00fffbf5e8U,
  0xfbff00fefdff0107U, 0x714141d11140a08U, 0x3040d0a0d14080bU, 0xf904010500110808U,
  0x1b0f0b05050403fcU, 0x202c2f3312111115U, 0x9130a10070e152bU, 0x1fb0005fcff0208U,
  0x1f1a19171218160fU, 0xb1a1a1e293f4036U, 0x3050d0910140407U, 0x12100f0e08060503U,
  0x10203825271f1913U, 0x605000705151108U, 0x706fdfa0300090dU, 0x1c1110fd01fffa06U,
  0xb0f03f2f1fc0519U, 0xfcfd0302fefcf1f9U, 0xf8f9eefafffdfd00U, 0xeaede6f7030c0602U,
  0xf7f3f1f7fc140cefU, 0xf7fefffcfd01fe01U, 0xf304fbf2fcf5ececU, 0xfa0a0cfbf3f2efe8U,
  0xfbfb0202f6eeedf1U, 0xf0eceaeef700fa02U, 0xe02f7eaf203f8f4U, 0xfaf4fbfffbf6fdfbU,
  0xfd03fb01fc050507U, 0x107fff4f7f0eaf6U, 0x2eeeff307fc0e05U, 0x403fb0205060b0bU,
  0xf2f2f4f9f7fcfdfcU, 0xeffa03060408ffefU, 0x4081808fdecdee4U, 0xfdfb01fe0100fe08U,
  0xf8fdfceff4eeedf7U, 0x4f7edecf0f805f9U, 0x4ff000506100e0bU, 0xf8f3f40403fafdfeU,
  0xf3e7ecefeef0e9f3U, 0x7180d0b1305fff7U, 0xfc0203fafcfafd09U, 0xe8e8edfdf70200fdU,
  0x111b11fb02f6fcfeU, 0x2ffff020909110eU, 0x5010c0607ff0304U, 0x170b01fbf3f8f800U,
  0xd0802fd10191513U, 0xfdfafc00fafafa01U, 0xfdf5fe0602070a0bU, 0xff1911101518140cU,
  0x101fb040107f7fcU, 0x5090601fef902ffU, 0xd0d0302fc010409U, 0xfffdfcf5fe0f1008U,
  0x2fefb00fdfa0403U, 0x180e0a0e120c0602U, 0xfb030b0d08000508U, 0xfe0000030100f1f2U,
  0xf05060303fafeffU, 0xd1c1b191215130cU, 0xfffff306070d10U, 0xfb05fa01fe02fdfcU,
  0x808190c0a00fafbU, 0xb0a12131708181cU, 0x30103ff0002fbfaU, 0x200ff0303fa0101U,
  0x8ff0104fcfd0002U, 0x3fbf903ff020108U, 0xfffdf903040302faU, 0x3fdfafcfeff00feU,
  0xfefbfefa0501fa02U, 0x10103fa04fcf9U, 0xdad9eff7d60e2b36U, 0x4de2b282ce11e03U,
  0x24333cedff02123aU, 0xd8e0d414e812fd04U, 0x3d000dd936ee3b0eU, 0x19dde32e0b15f1d5U,
  0xa24e62ed62c16dfU, 0xd32aff111e3b3d30U, 0x17dbe20101040af4U, 0x604db2d13271cf5U,
  0xe62ce72df903efe7U, 0xdc063b060ffaffdcU, 0x31db22101bf8212bU, 0xde09fddf0df4f5e3U,
  0xedf3f105d7e8da21U, 0xc7260cd326092f26U, 0xdfe0eb3300e736e9U, 0x2de1170dee0e1f0aU,
  0x110607f0fee222daU, 0x3170b17200dceU, 0xeadc220dfdf2d203U, 0x2c3427311e21fa2bU,
  0x17d5ddc5d0cdda2cU, 0x1c0df1e71e0f1705U, 0x6052af0e2183331U, 0xe0fdce130a3edbddU,
  0x70106f1f5df3c1bU, 0x38f3dde42e3f2a25U, 0xef20f425f63f02e0U, 0xe234e5db40e02103U,
  0xf60c3bd6f919f001U, 0xdf3cfbed00e81510U, 0x2024d6da21280831U, 0xc6061df8e217ebf9U,
  0x2b2f22f23c0bd303U, 0x24dfd82bf03bfb02U, 0xf1dd603ea29eae0U, 0xfd01261a11d6de21U,
  0xd9f907d730291fdaU, 0xde0f16131400e00dU, 0xdce8f81b18f0d4efU, 0xf4382e3b27d81525U,
  0xe928e92d33221f19U, 0xddd710e4e2ff2102U, 0x23e40f0b1c0ee810U, 0xfb2d26252a1f3931U,
  0xea1208e9eef13be0U, 0x1522e7f6281bfaf0U, 0x14362dfb32d4fd11U, 0x100829faf6e4130aU,
  0x1d1eb3b1526f4ecU, 0x3fc2a1be6e01ae1U, 0xd53e20103bdfd33cU, 0x1f21390a0d0d01dfU,
  0xf1d9f4141de3ecf8U, 0xeb31fd1004de1118U, 0xf9d42230eb311504U, 0xf53dde3bdd20dcdeU,
  0xf212030af7d81bU, 0x1f17dfe2eae226f9U, 0x381117331836e3dbU, 0x19fe193e32e7e40dU,
  0xe32ffe8e4f8d2d9U, 0xe7341506e130f4d3U, 0x330e2904fdfff11bU, 0x35010ffcfbfe0923U,
  0x14081adafb0ad31eU, 0xe5270a1b2fdbfefbU, 0xaddd52332e2030cU, 0xea25d2e31ffbf220U,
  0x3b081c00d3282efcU, 0xda22e93016e12412U, 0x2f25d7d9d1e1292fU, 0xffef19f420e2361eU,
  0xf09e52717d90ce0U, 0x2002da38fdecff1cU, 0x3925f63ed61fd900U, 0x1636dbef2d00053cU,
  0x22331bc8e012d2fbU, 0xe81beed3f8f91502U, 0x2908e3181fe41015U, 0xdeda1833f33a3afaU,
  0x3418113809f9d7d8U, 0x29e42829f9183816U, 0x362408392a2c2d2bU, 0xd7db14253a01ec1bU,
  0xecf3e6192dd2e00cU, 0x70118f0fc02e50bU, 0x31e909fadf2c2a21U, 0xd5e21930240ff132U,
  0x3e270f3de90a0a15U, 0x2cf3e2fd12031120U, 0xd9ffe016feff0822U, 0xe8f9df3409051c2aU,
  0x1b1818dfe81e0fe8U, 0x22133b37dfdf2c37U, 0xdcecf9eb323416d5U, 0xf10834ece510d206U,
  0xfcfefbf8fdfbfdfaU, 0xf500f502fcf300fbU, 0xf9f9040403fef5f4U, 0xf5fefffc03f9f8f3U,
  0xfdf6f701f5f3f5f3U, 0xf803f8fbfcf5f7feU, 0xf2f2f5fbfd00fef6U, 0xfcf8fc030002fff3U,
  0x2ff05fb07fafafeU, 0xf70400fdf5ff01f4U, 0x5f6f9f9f2f502f8U, 0xff000000fafffc04U,
  0xf8f40903feff090eU, 0xf4fbf6fbf900fcf5U, 0x9fc03feff01f201U, 0x1e2c261719150efeU,
  0xfbf7f1f4020a0d17U, 0xf80102fff4f902f6U, 0x1a060405f7fef700U, 0x221e402a35362f22U,
  0xfe0107f7eaf3f30bU, 0xf4f6edf0f5fdfcf2U, 0x2b121b131501f2f2U, 0xeff4e4f6000f1827U,
  0xf2fcfcf9fefff2U, 0x15160805f6f5f7f3U, 0xed0d001b22050302U, 0x4f9fdfcefe6f0e4U,
  0xa0800fcf6f3f8f3U, 0xfdf308fe001d0b04U, 0xf4f6fffe080d080eU, 0xf201f5fcfc00f1feU,
  0xfa0b03f70f07f9f6U, 0x270a0cf5e8fafdf6U, 0xf9f5f9f802f80915U, 0x50f0001fbf8fbf3U,
  0xf30600f8fafc0c06U, 0xe0c14171f2711f3U, 0xf7f9f6f30100f8ffU, 0xfdfa0b0a1003fcfeU,
  0x2b1d2705f9342a09U, 0xfff8f7051a120a20U, 0xfa04f9f1f3fdfff5U, 0x11383e1804f806feU,
  0x1d101f0f190d271fU, 0x3030400f7f7fc0cU, 0xf20c06f9edffeeU, 0xd06f9101c232217U,
  0xf8fdfc111d170700U, 0xf6f5f8f5faf500fbU, 0x7112d1e13f8f0f1U, 0xfc02f8e8fe05f8U,
  0xf1fafaf9f6fefefbU, 0x6f3eeecf3fa00faU, 0xfe05fef5f1151c19U, 0xf301fbfd07f4f8ecU,
  0xf0f8fbf300f6fffaU, 0xe7eaf500010a06fdU, 0xbf7e6f6fdf30402U, 0xfcf8f702f200fc03U,
  0xf5091e06fffcf6fdU, 0xfeee100be5dccceeU, 0xf8f0f6fd04f2fc03U, 0x80403f3f8f40004U,
  0xf6dad3ec0218250dU, 0x702f2fa070609fdU, 0xf302fef80003f701U, 0x13260d0c050e0cfcU,
  0x10f1008fdebe7f7U, 0xfa02f7010c09fdfaU, 0xc1205fbf3f6fd04U, 0x14010412040f0602U,
  0xff0b020403fffd01U, 0x2fbf701f8f9f8fbU, 0x1f0001022217fe03U, 0xdff04fe13211d11U,
  0x102f3f7f600f908U, 0x1202fef70303f5faU, 0x1628312424160913U, 0xfaf8f3f707080f11U,
  0xfefcfbfa04f4f5f7U, 0x1b1b121d00edf1f1U, 0xf50a1d211b1e3f29U, 0xf9f7f9f5fdfe0200U,
  0xefe8f9f403fffa02U, 0x261a1e1b0f0f0700U, 0xf7fbf8fa0d180e25U, 0x2f8f7f2f5f3fcf7U,
  0xf7fcf1f7f9f9f4f0U, 0x30d06fd00f906faU, 0xf200fcfcfff2f7U, 0xfcfbf801f603f4ffU,
  0xf7f7f50205f7fd02U, 0x1fbf500fdf5f7ffU, 0x104f2fafffbfcfcU, 0xf402f3f4faf903fbU,
  0xf8f8fe00f7fffdfeU, 0x402faf30100f4fdU, 0x408080007080405U, 0xfd01ff0007fdfd06U,
  0xfeff0303fcff0604U, 0x5040704fbfdff05U, 0xff0007fbfbfbfd06U, 0x30504fcfafc0100U,
  0x107fcfd04fd0305U, 0xfe0100fb01060700U, 0xfef8fbfc000300fdU, 0x4f90504fa0502feU,
  0xff0004ff050006fcU, 0xfafaf2fe0306fe08U, 0xf9fef4fbeff4f0f1U, 0x406fa06fe03fa01U,
  0xf7fb030002020106U, 0xe8e6ebf2f9fafdfbU, 0x4fe0702f9f8f2edU, 0x7fe06fe04060004U,
  0xf2f3f5f6fcf40203U, 0x2f3eee9f2e2e9f7U, 0x8fc05060202fd01U, 0xf502fc01080105fcU,
  0xd9e1e3fb020102ffU, 0xd1015030b0501dfU, 0xc09fe020106000aU, 0xe0e1509020901fdU,
  0x110c03ecdfdce6fdU, 0x508090d101405faU, 0xf040f040b070408U, 0xedf1f110192a270bU,
  0xf10fcf6fe1e19feU, 0x80afb02fbfc050dU, 0x21211d140f070c12U, 0xfa151c0ae8f5fe1bU,
  0x30001050c090a01U, 0x7fc070d0d0a0106U, 0xe3d101212a282216U, 0xf81007fe06132108U,
  0x30b07fb04fe04feU, 0x40392b140b05fe04U, 0xf6011b0be8d8ec19U, 0xfe05fef6f50704fcU,
  0x6f0f8fe0cfe0007U, 0xecd3e8082a291a13U, 0xf4f9ff07f40f201fU, 0x90309fc020700f6U,
  0x162314171305f903U, 0xf50d150aebd5d1f4U, 0x30708fdf506fe09U, 0x6060b02fcfd0805U,
  0xf1e9dbe8f90e0a10U, 0xa01fbfc1b061b0dU, 0xafcfd0608fffcfeU, 0xf0fc03fb06060e03U,
  0xb16240cfbebe4e5U, 0x80803010c0c0a02U, 0x150708fdfdfb00feU, 0x1df2dee5e9f7fc03U,
  0x60a0d071510260fU, 0xfa09020302fa03faU, 0xdcebf700fb00030aU, 0xf70e14181302e1c8U,
  0xfd0102fdfffd05U, 0xf1fbfa03fdfffb08U, 0x609f4cfcecfddf6U, 0xffeff4efe5eff707U,
  0xfd00fc03050200fbU, 0xdccee1edf0edf400U, 0xe8f0eeebfe0cfdd8U, 0x7fc0303f7e1eee7U,
  0xeaeafbf2ff000901U, 0xf403fff9f2eae3e1U, 0xf5f3efe6f3f1eceaU, 0xf905fd02050501f8U,
  0x8fcf7eae7edf8faU, 0xf8f9fd01fdf00614U, 0x807fefaf9eeeff5U, 0xfaf6f4fafa0206fdU,
  0x1f090d0b131007fcU, 0xfdf7f6f6fd01fe11U, 0xfbfe04fe08fdfaf8U, 0x51815fafa00fdfcU,
